<unk>	0
<s>	0
</s>	0
▁the	-3.22101
s	-3.39073
▁to	-3.71093
▁and	-3.84945
▁of	-3.9167
▁a	-3.95084
'	-4.17654
▁in	-4.25448
▁I	-4.4833
▁that	-4.56332
▁is	-4.65462
▁you	-4.81257
▁it	-4.84646
t	-4.85975
▁for	-4.89362
▁we	-5.07254
▁was	-5.08731
▁with	-5.11564
▁on	-5.12126
ing	-5.18366
▁be	-5.23897
▁are	-5.27948
▁have	-5.35415
ed	-5.40937
d	-5.45705
▁as	-5.47732
▁this	-5.49297
▁not	-5.5452
▁our	-5.58667
▁at	-5.69519
▁your	-5.73321
▁can	-5.74311
▁from	-5.7741
▁The	-5.79111
▁or	-5.80261
▁will	-5.84461
▁but	-5.87142
▁he	-5.87599
▁one	-5.92159
▁an	-5.92174
re	-5.9221
▁my	-5.93088
▁by	-5.9476
▁his	-6.0109
▁all	-6.01645
▁they	-6.02185
ly	-6.02486
▁had	-6.04971
▁her	-6.08133
▁me	-6.12304
▁more	-6.12705
I	-6.13407
▁were	-6.1498
▁about	-6.14984
▁out	-6.16479
▁do	-6.19471
▁so	-6.2193
▁up	-6.22839
m	-6.23654
▁has	-6.24428
▁what	-6.2541
y	-6.31352
▁there	-6.31786
▁time	-6.31866
▁would	-6.33715
The	-6.33988
▁like	-6.34148
▁their	-6.34511
er	-6.35116
▁It	-6.35939
▁been	-6.40081
▁just	-6.44184
▁if	-6.46425
▁them	-6.47177
▁some	-6.47951
▁which	-6.49904
▁We	-6.50611
▁she	-6.51904
▁He	-6.52202
ve	-6.54854
▁also	-6.55455
▁when	-6.5563
▁two	-6.56522
▁into	-6.57004
▁no	-6.60534
▁other	-6.60614
▁get	-6.60642
▁over	-6.66502
ll	-6.66792
▁him	-6.67041
▁us	-6.67292
n	-6.67474
▁And	-6.69115
▁know	-6.69318
▁think	-6.69904
▁who	-6.71035
al	-6.71789
▁could	-6.74933
▁see	-6.75855
▁than	-6.76106
▁A	-6.77476
▁very	-6.78075
▁don	-6.78582
▁back	-6.80204
▁how	-6.80609
e	-6.81146
▁people	-6.81159
▁new	-6.81199
▁these	-6.83979
▁But	-6.84102
r	-6.8509
▁make	-6.86383
▁any	-6.86608
▁first	-6.87229
We	-6.87327
▁then	-6.87826
▁only	-6.88699
▁now	-6.90811
▁way	-6.91315
in	-6.91411
▁You	-6.92203
▁	-6.93497
▁In	-6.93774
▁year	-6.9489
▁want	-6.94962
▁good	-6.96614
▁This	-7.00039
▁well	-7.00893
▁need	-7.01022
▁going	-7.0131
▁may	-7.01346
▁work	-7.01611
es	-7.02366
▁because	-7.03351
▁much	-7.0596
▁even	-7.06445
▁through	-7.07531
▁She	-7.0799
▁where	-7.09328
▁go	-7.0945
▁down	-7.0952
▁So	-7.1099
It	-7.11167
A	-7.11623
▁right	-7.1171
▁really	-7.12213
▁those	-7.1496
▁most	-7.15755
▁should	-7.16902
a	-7.16931
In	-7.17904
▁three	-7.19015
▁did	-7.19049
▁take	-7.22133
▁many	-7.22189
▁re	-7.22325
▁twenty	-7.23556
▁here	-7.24906
▁business	-7.25052
▁use	-7.25161
▁still	-7.25394
▁after	-7.25587
▁too	-7.26442
▁If	-7.28507
▁before	-7.28811
▁made	-7.30218
or	-7.3063
▁They	-7.30723
▁look	-7.31744
▁years	-7.331
▁around	-7.34978
▁point	-7.36573
ers	-7.37615
And	-7.38029
▁being	-7.38242
▁day	-7.38875
▁hundred	-7.39865
▁last	-7.40028
▁little	-7.40399
▁didn	-7.40609
▁five	-7.414
▁said	-7.41418
▁something	-7.41892
▁off	-7.41966
▁things	-7.44599
▁such	-7.45278
This	-7.45644
▁same	-7.45882
▁help	-7.46144
▁life	-7.4679
S	-7.47544
▁both	-7.47663
▁different	-7.47705
ic	-7.48219
o	-7.48306
▁find	-7.48438
▁never	-7.49358
▁each	-7.49671
▁got	-7.49946
He	-7.50865
▁quarter	-7.50936
▁come	-7.52188
l	-7.52323
▁lot	-7.52926
▁say	-7.53414
▁own	-7.53425
▁its	-7.53792
▁four	-7.55093
▁That	-7.55408
▁long	-7.57148
▁un	-7.57185
▁again	-7.57263
▁great	-7.57783
▁used	-7.57903
▁end	-7.57969
▁S	-7.58141
▁There	-7.58198
▁few	-7.59302
▁better	-7.59336
▁always	-7.59531
▁part	-7.60436
▁while	-7.60461
▁might	-7.61387
But	-7.61395
▁home	-7.6179
▁best	-7.62328
▁between	-7.6284
▁am	-7.64053
le	-7.65872
ation	-7.6591
▁every	-7.66153
▁world	-7.66406
If	-7.66447
T	-7.67299
it	-7.67315
▁feel	-7.6762
▁love	-7.68902
▁place	-7.69008
an	-7.69803
C	-7.7033
▁next	-7.70358
▁market	-7.71455
able	-7.71481
▁B	-7.72314
ion	-7.72632
▁does	-7.72718
▁s	-7.73584
g	-7.73877
P	-7.7552
▁number	-7.76211
▁found	-7.76807
▁another	-7.76929
▁growth	-7.76947
▁second	-7.77568
▁believe	-7.77726
▁thing	-7.77912
You	-7.781
▁away	-7.78132
▁put	-7.78415
▁continue	-7.78591
c	-7.79275
▁must	-7.79383
ity	-7.80061
▁results	-7.80555
▁give	-7.80682
ar	-7.80699
▁under	-7.80704
on	-7.80976
il	-7.81277
▁sure	-7.81499
▁thought	-7.8206
▁head	-7.82589
▁hand	-7.82799
▁important	-7.83105
▁thousand	-7.84085
▁man	-7.84318
▁For	-7.84767
▁without	-7.85033
So	-7.85383
▁data	-7.85637
▁T	-7.8595
▁keep	-7.86394
▁call	-7.86441
▁able	-7.87119
▁As	-7.87472
▁company	-7.88485
▁information	-7.89216
▁bit	-7.89296
▁de	-7.89462
▁What	-7.90182
M	-7.90202
▁let	-7.9029
▁why	-7.90326
▁E	-7.90544
▁during	-7.90545
D	-7.91216
▁case	-7.91251
i	-7.91541
▁high	-7.91968
▁six	-7.91968
▁kind	-7.92404
▁When	-7.92585
▁change	-7.92772
▁course	-7.93303
▁nineteen	-7.93971
▁team	-7.9428
▁start	-7.94478
p	-7.95044
and	-7.95143
F	-7.95398
▁set	-7.95686
▁though	-7.95724
As	-7.95733
el	-7.95789
B	-7.96727
▁done	-7.96824
▁hard	-7.97399
▁using	-7.9836
▁against	-7.98659
▁small	-7.99109
E	-7.99817
▁system	-8.0021
▁left	-8.00518
▁doing	-8.01202
th	-8.01508
▁face	-8.01679
▁side	-8.01709
▁water	-8.01876
▁enough	-8.02019
b	-8.02383
▁came	-8.02507
▁F	-8.02839
ch	-8.03247
R	-8.04209
▁fact	-8.04364
▁looking	-8.0451
▁car	-8.05434
▁since	-8.05604
en	-8.05687
▁went	-8.05748
ra	-8.06004
ent	-8.0627
▁took	-8.0637
L	-8.06671
▁order	-8.06778
▁room	-8.0699
▁ten	-8.07105
▁today	-8.07463
▁doesn	-8.07808
ment	-8.08098
▁process	-8.08171
▁non	-8.08203
▁line	-8.08681
▁No	-8.09005
▁past	-8.09006
▁D	-8.09063
▁far	-8.09131
ness	-8.09165
▁family	-8.09214
▁big	-8.09329
▁looked	-8.09424
▁show	-8.09444
ur	-8.09868
▁already	-8.09938
▁support	-8.10109
▁anything	-8.10214
▁experience	-8.10223
▁until	-8.10732
▁My	-8.10759
▁eight	-8.11236
▁tell	-8.11547
▁making	-8.11758
▁strong	-8.12134
▁open	-8.12184
▁actually	-8.12434
▁provide	-8.12435
▁play	-8.12827
▁working	-8.13394
▁seven	-8.13517
▁seen	-8.13594
▁game	-8.13631
G	-8.13836
▁care	-8.13837
▁across	-8.13875
▁real	-8.1411
She	-8.14217
▁expect	-8.14295
h	-8.14898
▁eyes	-8.14985
▁customers	-8.15692
▁wanted	-8.15871
▁future	-8.15943
▁mean	-8.15947
▁less	-8.16021
▁value	-8.16363
They	-8.16474
ri	-8.16684
us	-8.17137
▁together	-8.17148
▁night	-8.17397
at	-8.17465
▁free	-8.18043
▁money	-8.18162
▁ever	-8.18387
▁C	-8.18499
est	-8.18921
▁G	-8.19218
k	-8.19225
▁full	-8.19275
te	-8.19293
▁con	-8.19337
▁e	-8.19611
▁getting	-8.19745
▁level	-8.19757
ive	-8.20042
▁days	-8.20144
▁question	-8.20694
is	-8.20702
▁within	-8.20765
as	-8.20847
▁To	-8.21025
▁wasn	-8.21074
▁percent	-8.21465
▁mind	-8.21522
man	-8.2187
▁house	-8.22069
ry	-8.22201
O	-8.22215
▁power	-8.22366
▁large	-8.22502
▁try	-8.2316
▁top	-8.2334
▁understand	-8.23408
▁having	-8.23499
▁study	-8.23858
▁several	-8.23861
lo	-8.24056
▁everything	-8.24117
ro	-8.24597
▁P	-8.24776
▁cost	-8.25398
to	-8.25451
▁nothing	-8.25453
ies	-8.2553
▁light	-8.26028
▁run	-8.26191
▁forward	-8.26287
▁won	-8.26335
ter	-8.26344
▁saw	-8.26591
▁pre	-8.26627
▁started	-8.26723
▁service	-8.26761
▁possible	-8.26813
▁often	-8.26869
▁once	-8.27221
▁control	-8.27379
▁body	-8.27744
▁knew	-8.27795
▁product	-8.27846
▁felt	-8.2805
▁problem	-8.28158
▁talk	-8.28325
▁person	-8.28404
▁become	-8.28549
▁old	-8.29051
▁performance	-8.29054
u	-8.29436
▁group	-8.29815
▁read	-8.29883
▁co	-8.30104
▁state	-8.30194
There	-8.30565
▁half	-8.30681
▁book	-8.30922
▁later	-8.31019
▁nine	-8.31354
▁post	-8.31479
▁thirty	-8.31495
▁turn	-8.31627
▁trying	-8.31657
▁However	-8.31869
ia	-8.31886
▁Re	-8.32062
na	-8.32144
▁per	-8.32193
▁week	-8.32288
For	-8.32487
▁least	-8.32505
▁told	-8.32525
When	-8.32617
▁available	-8.3263
▁yet	-8.32769
N	-8.33012
id	-8.33355
▁move	-8.33488
▁food	-8.34295
ta	-8.35017
▁someone	-8.35233
▁R	-8.35431
▁probably	-8.35532
▁including	-8.35557
▁children	-8.35575
▁share	-8.35685
▁All	-8.35839
ist	-8.36085
▁patients	-8.36155
▁given	-8.36216
▁God	-8.36379
▁higher	-8.3641
▁impact	-8.36421
▁plan	-8.36753
▁quite	-8.37078
▁area	-8.37116
▁example	-8.3727
ted	-8.37336
▁increase	-8.37387
▁school	-8.37765
f	-8.37804
▁close	-8.38286
rs	-8.38584
▁products	-8.38604
▁result	-8.38697
That	-8.39046
▁job	-8.39675
ne	-8.39714
ate	-8.40235
ary	-8.40352
▁name	-8.40616
▁coming	-8.40617
▁live	-8.40677
age	-8.40747
▁local	-8.40897
▁model	-8.409
ine	-8.41106
et	-8.41441
▁O	-8.41662
▁space	-8.41688
▁terms	-8.41692
▁door	-8.41711
▁Do	-8.42017
▁along	-8.42169
▁asked	-8.42194
▁financial	-8.42553
▁further	-8.42555
▁sales	-8.42566
co	-8.42572
▁due	-8.42604
ul	-8.42681
▁whole	-8.43135
se	-8.43178
▁clear	-8.43284
▁pretty	-8.43518
▁moment	-8.43638
▁months	-8.43864
▁matter	-8.44182
▁lower	-8.44329
▁New	-8.44577
▁else	-8.44624
▁early	-8.44658
▁significant	-8.44662
▁whether	-8.44678
▁key	-8.44743
▁present	-8.44896
ling	-8.45173
▁pro	-8.45232
me	-8.45276
▁H	-8.45312
ty	-8.45358
▁based	-8.45755
▁means	-8.45997
▁reason	-8.46098
▁At	-8.46177
▁development	-8.46198
we	-8.46325
▁times	-8.46466
la	-8.46598
▁focus	-8.46598
ie	-8.46602
▁almost	-8.46606
▁easy	-8.46861
▁idea	-8.47012
H	-8.4709
▁heart	-8.47146
▁myself	-8.47369
▁create	-8.47548
▁pay	-8.47666
ism	-8.47681
▁either	-8.47739
▁sense	-8.47821
ating	-8.47867
▁view	-8.48069
ma	-8.48183
▁story	-8.48244
▁design	-8.48313
▁N	-8.48431
▁front	-8.48444
ant	-8.48551
ton	-8.48604
▁bad	-8.48728
▁fifty	-8.48865
▁current	-8.48898
less	-8.48918
▁third	-8.49015
▁K	-8.49045
▁ask	-8.49253
▁His	-8.49359
▁turned	-8.49578
▁project	-8.49735
▁couple	-8.49852
▁rest	-8.49908
▁however	-8.49966
▁position	-8.50102
▁behind	-8.50142
▁p	-8.50451
ce	-8.50746
▁rate	-8.50802
▁dollars	-8.51094
tic	-8.51101
▁couldn	-8.51134
ous	-8.51404
▁country	-8.5152
x	-8.52011
▁makes	-8.52017
ol	-8.521
▁Then	-8.52277
V	-8.52588
▁price	-8.52605
ally	-8.52692
ance	-8.52698
▁government	-8.52926
▁men	-8.5297
ge	-8.52992
um	-8.53038
▁hope	-8.5357
However	-8.53836
▁certain	-8.54067
▁everyone	-8.54235
▁health	-8.5462
▁isn	-8.54909
▁quality	-8.55118
li	-8.55433
▁others	-8.55687
▁needs	-8.55834
▁short	-8.55837
▁women	-8.55856
ized	-8.55964
▁add	-8.5606
Our	-8.56132
im	-8.56915
▁public	-8.57066
▁stop	-8.5715
▁needed	-8.57521
ial	-8.57721
ated	-8.57749
▁customer	-8.57812
▁taking	-8.57974
ad	-8.58043
ci	-8.58146
▁form	-8.58479
▁services	-8.58739
▁called	-8.58932
▁risk	-8.5925
▁Now	-8.59309
▁friends	-8.59474
▁yourself	-8.59608
▁ago	-8.59925
▁comes	-8.60001
▁dis	-8.60004
▁Not	-8.60201
▁L	-8.60405
▁addition	-8.60469
ian	-8.60647
the	-8.60785
▁true	-8.60971
▁These	-8.61162
▁low	-8.61349
▁cannot	-8.61399
▁f	-8.6147
▁season	-8.62103
▁One	-8.62351
▁After	-8.62549
▁human	-8.62599
▁site	-8.6265
▁capital	-8.62766
▁program	-8.62912
▁table	-8.63023
▁Or	-8.63026
▁amount	-8.63103
▁forty	-8.63132
▁size	-8.63264
▁Our	-8.63381
▁zero	-8.63392
▁opportunity	-8.63514
▁sort	-8.6366
▁maybe	-8.63801
w	-8.6391
▁list	-8.64072
W	-8.64403
▁content	-8.64429
▁longer	-8.64476
▁taken	-8.64558
▁specific	-8.64676
▁minutes	-8.64683
▁W	-8.64801
▁deal	-8.64854
led	-8.64863
▁single	-8.64909
▁revenue	-8.65072
▁potential	-8.65123
▁leave	-8.65323
▁mother	-8.65403
▁How	-8.65611
▁inside	-8.66023
▁questions	-8.66215
▁drive	-8.6635
▁above	-8.66404
▁treatment	-8.66429
▁remember	-8.6646
▁stay	-8.66479
▁changes	-8.66486
▁wrong	-8.66577
▁simple	-8.66895
▁especially	-8.66961
▁positive	-8.67155
▁similar	-8.67217
▁court	-8.67379
▁outside	-8.67549
▁interest	-8.67553
▁words	-8.68009
▁offer	-8.68029
un	-8.68142
▁young	-8.68421
▁tried	-8.68642
▁hands	-8.68718
▁bring	-8.68841
▁rather	-8.68871
▁ninety	-8.69499
▁social	-8.69553
To	-8.69593
▁seems	-8.69677
▁website	-8.70052
▁industry	-8.70117
ck	-8.70365
▁phone	-8.70547
▁black	-8.70791
▁type	-8.70862
▁grow	-8.71008
▁answer	-8.71038
▁learn	-8.71071
▁buy	-8.71073
▁access	-8.71264
▁issue	-8.71422
▁energy	-8.71671
▁known	-8.71687
▁build	-8.71969
▁air	-8.72063
▁demand	-8.72115
son	-8.7221
▁research	-8.72215
▁morning	-8.72616
▁building	-8.72665
▁heard	-8.73454
▁additional	-8.73623
▁period	-8.73625
▁sub	-8.74027
▁white	-8.74292
▁hear	-8.7452
line	-8.74542
▁general	-8.74608
▁voice	-8.74769
am	-8.74916
▁difficult	-8.7501
▁check	-8.75052
ful	-8.75306
▁simply	-8.75334
▁effect	-8.7548
▁approach	-8.75529
▁gave	-8.75772
▁expected	-8.75832
▁M	-8.76034
▁likely	-8.76222
▁en	-8.76518
▁age	-8.76539
▁include	-8.76854
▁De	-8.77283
▁happy	-8.77556
▁hair	-8.77778
▁major	-8.77925
▁special	-8.78111
▁soon	-8.7815
▁opportunities	-8.78163
▁cash	-8.78574
▁Co	-8.7858
de	-8.78604
▁hours	-8.78687
▁woman	-8.78728
ization	-8.78818
▁test	-8.78941
▁personal	-8.78961
▁lost	-8.78985
▁online	-8.79218
▁On	-8.79306
▁quickly	-8.79376
▁media	-8.79546
▁anyone	-8.7985
▁himself	-8.79871
▁role	-8.79957
▁child	-8.80072
▁return	-8.80154
▁environment	-8.80276
▁fun	-8.80502
▁management	-8.80588
min	-8.8076
▁continued	-8.80769
ping	-8.80842
▁range	-8.80847
▁began	-8.80859
▁war	-8.80931
▁cut	-8.8094
▁Some	-8.81107
ver	-8.81181
▁win	-8.81198
▁ground	-8.81225
▁improve	-8.81485
▁wouldn	-8.81583
▁happen	-8.81593
▁city	-8.81662
▁US	-8.81732
▁step	-8.81808
▁technology	-8.81954
▁hit	-8.82028
be	-8.821
▁U	-8.82318
▁With	-8.82877
▁perfect	-8.82901
What	-8.83036
▁meet	-8.83394
ut	-8.83415
▁sixty	-8.83495
▁American	-8.83528
▁history	-8.83595
▁father	-8.83691
▁law	-8.83835
These	-8.83862
▁levels	-8.83938
▁particular	-8.83947
ir	-8.84052
▁review	-8.84069
▁music	-8.84251
▁community	-8.846
▁anti	-8.846
▁office	-8.84618
▁allow	-8.8473
▁paper	-8.84867
▁ability	-8.8488
▁field	-8.85087
▁increased	-8.85101
▁thinking	-8.85178
▁chance	-8.85264
▁Her	-8.85461
▁talking	-8.85729
▁cause	-8.86035
up	-8.8638
▁running	-8.86425
▁death	-8.8649
▁living	-8.86515
▁w	-8.86523
▁seeing	-8.86651
▁flow	-8.86689
▁Le	-8.86904
▁issues	-8.87221
▁gone	-8.87223
▁happened	-8.87228
▁nice	-8.87488
▁hold	-8.87688
ish	-8.8774
op	-8.87752
▁seemed	-8.87875
▁success	-8.88082
▁held	-8.88213
▁various	-8.88385
▁evidence	-8.88502
▁contact	-8.88691
▁st	-8.88692
ac	-8.88827
▁account	-8.88862
▁companies	-8.88963
▁progress	-8.89087
▁seem	-8.89129
ities	-8.89338
▁eighty	-8.89366
▁An	-8.89533
z	-8.89636
▁pain	-8.89738
▁among	-8.89867
U	-8.90152
▁main	-8.90175
▁b	-8.90193
▁areas	-8.9022
▁common	-8.90231
con	-8.90336
di	-8.9034
▁sound	-8.90573
▁walk	-8.90656
▁consider	-8.90714
▁following	-8.90936
▁activity	-8.9094
▁class	-8.90965
per	-8.9099
▁strategy	-8.91001
▁complete	-8.91067
▁itself	-8.91142
▁red	-8.91214
▁act	-8.91286
ite	-8.91399
ize	-8.91402
▁color	-8.91745
▁Just	-8.919
▁upon	-8.92068
▁friend	-8.92317
ative	-8.9243
ti	-8.92453
▁related	-8.92566
ni	-8.9265
▁ready	-8.92878
▁operating	-8.93012
▁below	-8.93014
▁beautiful	-8.93175
▁blood	-8.93388
▁V	-8.93448
vi	-8.9348
▁seventy	-8.93488
▁month	-8.93629
▁break	-8.93632
▁cases	-8.93686
pe	-8.93708
▁alone	-8.93769
▁lead	-8.93921
▁fourth	-8.94034
▁attention	-8.94115
▁entire	-8.94165
▁near	-8.94207
▁bar	-8.94429
▁weeks	-8.94501
ner	-8.94553
▁dark	-8.94575
▁fall	-8.94609
▁students	-8.94639
▁costs	-8.94696
ig	-8.94824
▁cr	-8.9483
▁required	-8.94832
▁Ma	-8.94884
▁Well	-8.95053
▁date	-8.95055
▁remain	-8.95119
▁final	-8.95142
▁action	-8.95315
po	-8.95371
▁road	-8.95413
▁worked	-8.95486
▁function	-8.95572
▁fire	-8.95698
▁La	-8.95742
ard	-8.95794
▁problems	-8.958
▁individual	-8.95825
▁stuff	-8.95882
▁base	-8.96163
go	-8.9623
▁floor	-8.96337
▁writing	-8.96476
▁feeling	-8.96488
▁skin	-8.96713
▁became	-8.96732
▁eighteen	-8.96753
▁production	-8.96957
▁page	-8.97006
▁situation	-8.97052
At	-8.97108
sh	-8.97332
mo	-8.97408
▁film	-8.97418
▁markets	-8.97574
▁benefit	-8.97656
▁decision	-8.97895
▁deep	-8.97977
▁recent	-8.97995
▁term	-8.98049
▁certainly	-8.98051
▁art	-8.98132
▁tax	-8.9826
My	-8.9847
va	-8.98481
ning	-8.98651
▁ex	-8.98683
▁credit	-8.98769
After	-8.98769
▁toward	-8.98905
▁normal	-8.98923
▁kids	-8.98971
▁cell	-8.99116
▁report	-8.99149
▁watch	-8.99301
▁clean	-8.99318
▁usually	-8.99611
▁enjoy	-8.99621
▁total	-8.9967
▁o	-8.99684
▁write	-8.99691
▁moving	-8.9972
K	-8.99725
▁please	-8.99791
▁visit	-9.00045
▁track	-9.00216
▁decided	-9.00222
▁late	-9.00223
▁analysis	-9.0052
▁follow	-9.00569
▁fifteen	-9.0058
▁exactly	-9.008
No	-9.00825
▁subject	-9.0084
▁goes	-9.00863
v	-9.01268
▁fine	-9.01371
▁Ro	-9.01382
▁United	-9.01428
With	-9.01712
▁network	-9.01969
▁guess	-9.02097
▁sometimes	-9.02116
▁store	-9.02155
▁completely	-9.02197
▁oil	-9.02283
▁choose	-9.02642
▁investment	-9.0292
▁structure	-9.02966
▁fear	-9.02978
ny	-9.02992
▁bed	-9.03018
▁d	-9.03049
▁ways	-9.03063
▁speak	-9.03129
▁looks	-9.03141
▁cross	-9.03226
ow	-9.0337
▁growing	-9.0343
On	-9.03467
ide	-9.03569
our	-9.03649
▁app	-9.03759
▁begin	-9.0378
▁overall	-9.03783
▁release	-9.03824
▁conditions	-9.03844
▁method	-9.03858
▁practice	-9.03932
ors	-9.04019
▁material	-9.04023
▁record	-9.04102
▁code	-9.0414
▁natural	-9.04237
▁factors	-9.04246
▁basis	-9.04255
he	-9.04283
▁unique	-9.04349
▁cells	-9.04385
▁pressure	-9.04413
ex	-9.04472
▁feet	-9.04496
▁event	-9.04531
▁members	-9.04532
no	-9.04572
▁events	-9.04641
▁balance	-9.04711
▁twelve	-9.04787
▁statements	-9.048
▁address	-9.04962
▁themselves	-9.05076
▁moved	-9.05177
▁knowledge	-9.05204
▁relationship	-9.05261
▁Be	-9.05266
om	-9.05276
ber	-9.05369
▁video	-9.05559
▁word	-9.0557
▁Ba	-9.05683
▁center	-9.05717
▁party	-9.05721
▁response	-9.05758
▁Sa	-9.05778
▁path	-9.06026
▁changed	-9.06272
▁Con	-9.06289
out	-9.06296
▁difference	-9.06553
▁wait	-9.06616
▁safe	-9.06822
ence	-9.06836
▁choice	-9.07196
ot	-9.07374
bb	-9.07408
▁training	-9.07464
▁fit	-9.07507
▁studies	-9.0756
▁Me	-9.07639
▁fast	-9.07646
▁kept	-9.0766
Now	-9.07754
▁sat	-9.07798
▁patient	-9.07955
▁Mo	-9.08062
▁eye	-9.08343
ster	-9.08427
▁land	-9.08603
▁email	-9.08607
▁instead	-9.08672
▁works	-9.08913
▁spend	-9.09031
▁Even	-9.09045
▁takes	-9.09059
▁lives	-9.09092
▁points	-9.09245
▁weight	-9.09416
▁associated	-9.09437
ha	-9.09437
▁throughout	-9.09502
▁interesting	-9.09506
▁touch	-9.09554
▁avoid	-9.09555
▁global	-9.09557
land	-9.0957
▁travel	-9.09677
▁towards	-9.09882
▁parents	-9.10069
▁mentioned	-9.10221
▁dead	-9.10292
▁necessary	-9.10298
▁says	-9.10337
▁Ca	-9.1037
▁brand	-9.10419
▁ca	-9.10689
bo	-9.10691
▁Your	-9.1072
▁board	-9.10727
one	-9.10779
▁beginning	-9.10892
hi	-9.10956
▁Li	-9.11139
way	-9.11153
▁million	-9.11175
▁multiple	-9.11208
▁Q	-9.11417
▁political	-9.11451
▁ahead	-9.11567
▁police	-9.11598
▁c	-9.1164
▁brought	-9.11735
▁earlier	-9.11811
▁respect	-9.11873
▁t	-9.11896
ten	-9.11997
os	-9.12066
▁Ra	-9.12121
▁included	-9.12146
ical	-9.12186
▁met	-9.12238
▁focused	-9.12327
▁provided	-9.12337
▁involved	-9.12412
▁considered	-9.12698
▁huge	-9.12728
▁v	-9.1289
▁section	-9.13061
▁cool	-9.13103
▁blog	-9.13228
▁particularly	-9.13292
▁stand	-9.13502
While	-9.13558
▁multi	-9.13571
▁Don	-9.13722
▁games	-9.13916
▁extra	-9.13973
▁systems	-9.14041
▁playing	-9.14068
▁economic	-9.14077
nt	-9.14271
▁reading	-9.14341
▁sign	-9.14419
▁search	-9.14502
▁pick	-9.14524
▁image	-9.14558
▁direction	-9.14623
▁easily	-9.14762
ward	-9.14796
les	-9.14804
ron	-9.15334
▁worth	-9.15386
▁language	-9.1544
▁features	-9.1548
▁nature	-9.15599
▁ra	-9.15643
▁rates	-9.15676
mi	-9.15697
ag	-9.1591
ho	-9.15983
▁professional	-9.1609
▁finally	-9.16262
▁goal	-9.16344
ga	-9.1656
▁details	-9.16631
do	-9.16669
▁strength	-9.16718
▁beyond	-9.1679
▁received	-9.16905
▁mix	-9.16916
▁hospital	-9.17157
▁Can	-9.17329
▁advantage	-9.17394
▁property	-9.17427
▁average	-9.17515
▁girl	-9.1762
▁disease	-9.17631
▁haven	-9.17673
▁Bo	-9.17709
▁effects	-9.17779
und	-9.17814
▁players	-9.17879
▁standard	-9.18018
▁hot	-9.18161
▁ensure	-9.18408
▁sleep	-9.18469
▁America	-9.18487
▁deliver	-9.18524
▁Let	-9.18551
▁style	-9.18569
▁saying	-9.18585
▁prior	-9.18664
▁clients	-9.18746
king	-9.18836
dy	-9.18978
▁culture	-9.18979
▁eat	-9.19061
▁di	-9.19328
▁created	-9.19386
▁town	-9.19428
▁compared	-9.19679
em	-9.20079
All	-9.20086
▁super	-9.20176
mer	-9.20379
▁staff	-9.20406
▁security	-9.20414
▁sit	-9.20435
▁private	-9.20481
ley	-9.20564
▁cold	-9.2071
ring	-9.20721
▁Why	-9.20769
▁truth	-9.20919
ak	-9.2106
▁fully	-9.21096
▁solution	-9.21168
▁currently	-9.21406
▁round	-9.21424
▁shows	-9.21711
▁reach	-9.2176
ions	-9.21938
▁Po	-9.22001
▁computer	-9.22045
▁platform	-9.22083
lu	-9.22131
▁businesses	-9.22156
▁China	-9.22293
▁starting	-9.22407
▁St	-9.22416
▁lack	-9.2261
▁slow	-9.22643
by	-9.22667
ff	-9.22685
▁added	-9.22771
▁loved	-9.22796
▁save	-9.22871
▁previous	-9.22909
▁projects	-9.2313
end	-9.232
▁guy	-9.23238
▁medical	-9.23255
▁cover	-9.234
▁serve	-9.23535
▁Al	-9.23554
ably	-9.23657
▁mo	-9.23801
▁States	-9.23896
▁fight	-9.23913
▁effective	-9.23929
▁directly	-9.23935
▁loss	-9.23973
iv	-9.23989
▁showed	-9.24008
▁population	-9.2403
▁source	-9.24055
ap	-9.24088
▁explain	-9.24107
▁learning	-9.24254
▁portfolio	-9.24386
▁By	-9.24474
▁contract	-9.24532
▁application	-9.24555
▁warm	-9.24617
▁mid	-9.24724
▁picture	-9.24733
▁physical	-9.24763
▁la	-9.24806
▁commercial	-9.24822
▁wish	-9.2488
▁stood	-9.24943
▁count	-9.24966
▁groups	-9.24977
ger	-9.25003
▁First	-9.25085
▁original	-9.25183
▁Mar	-9.2519
ip	-9.25211
▁piece	-9.25241
▁guys	-9.25244
▁imp	-9.25275
▁surface	-9.25329
▁clinical	-9.25337
▁arm	-9.25458
▁reported	-9.25715
▁Maybe	-9.25784
▁version	-9.25902
▁wide	-9.25975
▁condition	-9.25989
▁recently	-9.26009
▁ran	-9.26019
▁negative	-9.26093
▁spent	-9.26123
▁reduce	-9.26187
▁series	-9.26193
▁stopped	-9.26249
der	-9.26316
▁actual	-9.26462
▁existing	-9.26545
▁summer	-9.2655
▁hour	-9.26685
▁brain	-9.2691
▁wall	-9.26968
ship	-9.27063
▁Trump	-9.27156
▁X	-9.27216
▁giving	-9.27221
▁clearly	-9.27259
▁shape	-9.27274
▁items	-9.27388
▁news	-9.27536
▁limited	-9.27679
▁successful	-9.27748
▁ball	-9.27804
▁national	-9.27833
▁trust	-9.27916
ise	-9.2796
ee	-9.28013
▁stage	-9.28046
▁sent	-9.28205
▁card	-9.28347
▁direct	-9.28427
▁income	-9.28452
▁receive	-9.28467
▁note	-9.28564
▁quick	-9.28665
▁hurt	-9.28802
▁trial	-9.28942
▁built	-9.28944
▁spot	-9.28978
ub	-9.29006
▁While	-9.29025
▁green	-9.29029
com	-9.2928
▁inter	-9.29302
time	-9.29518
▁gas	-9.29543
▁policy	-9.29557
▁benefits	-9.29629
▁Because	-9.29635
▁although	-9.2964
▁books	-9.29694
▁force	-9.2975
bi	-9.2977
▁followed	-9.29855
ab	-9.29894
▁lose	-9.29928
▁screen	-9.29991
▁expression	-9.29994
▁po	-9.30015
▁options	-9.30041
▁effort	-9.3009
▁perhaps	-9.3013
▁Yes	-9.3019
▁sp	-9.30253
▁numbers	-9.30307
ca	-9.30323
▁heat	-9.30382
▁countries	-9.30383
▁organization	-9.30427
▁immediately	-9.30594
▁played	-9.30716
▁seat	-9.30797
▁highly	-9.30816
ud	-9.30835
▁Z	-9.30847
▁lines	-9.309
▁text	-9.30917
▁larger	-9.30987
▁press	-9.31099
▁understanding	-9.312
▁agree	-9.31275
▁opened	-9.31388
▁doubt	-9.31487
▁stock	-9.31562
▁movement	-9.316
tro	-9.31673
▁mouth	-9.31676
One	-9.31749
lin	-9.3175
▁trade	-9.31782
▁activities	-9.31848
▁marketing	-9.31866
let	-9.31968
▁sell	-9.31979
▁walked	-9.32013
▁trip	-9.32279
▁window	-9.32287
▁figure	-9.3232
▁soft	-9.32342
▁fresh	-9.32343
▁wife	-9.32349
▁son	-9.32379
▁character	-9.32489
▁smile	-9.32588
▁host	-9.32627
▁prevent	-9.32668
▁send	-9.32779
▁thank	-9.32806
▁plans	-9.32824
tri	-9.32967
mon	-9.33083
▁whatever	-9.33126
▁Pro	-9.33135
▁blue	-9.33195
▁box	-9.33199
▁gun	-9.33202
▁gives	-9.33441
▁digital	-9.33479
▁affect	-9.33499
ations	-9.33555
▁complex	-9.33676
side	-9.33685
▁speed	-9.33695
▁ho	-9.33734
▁user	-9.33816
▁comment	-9.33912
▁greater	-9.33959
▁Europe	-9.3397
ke	-9.34051
▁straight	-9.34054
▁waiting	-9.34134
▁definitely	-9.3422
Then	-9.34258
▁aren	-9.34278
ging	-9.34452
fe	-9.34591
▁guidance	-9.34592
▁onto	-9.34666
▁remains	-9.34695
▁York	-9.34799
▁Go	-9.34846
▁breath	-9.34871
▁scale	-9.35041
▁target	-9.35062
▁reached	-9.35068
▁im	-9.35093
ect	-9.3525
▁prices	-9.35395
▁closed	-9.35419
▁meeting	-9.35492
ens	-9.35522
▁damage	-9.35527
▁led	-9.35566
▁pulled	-9.35604
ight	-9.35734
ang	-9.35868
▁distribution	-9.35874
da	-9.35896
▁attack	-9.35987
▁notice	-9.35997
▁driving	-9.36059
▁sixteen	-9.36192
▁supply	-9.36197
▁tend	-9.36215
▁happens	-9.36216
▁core	-9.36324
ice	-9.36405
▁provides	-9.36481
▁shot	-9.36663
tor	-9.36694
▁claim	-9.36706
▁volume	-9.3674
que	-9.36812
▁develop	-9.36824
▁significantly	-9.36835
▁bo	-9.3687
▁efforts	-9.36941
▁shown	-9.3715
▁vi	-9.37448
▁comments	-9.37448
▁ideas	-9.37518
▁cancer	-9.37538
▁resources	-9.3757
▁match	-9.37668
▁web	-9.3769
▁solid	-9.37804
cing	-9.37875
tion	-9.37976
ped	-9.38018
▁allowed	-9.38383
▁herself	-9.38472
▁shop	-9.38498
fi	-9.38627
▁purpose	-9.38688
▁reasons	-9.38717
ick	-9.3872
▁international	-9.38753
▁purchase	-9.38765
▁written	-9.38795
▁fair	-9.38889
▁according	-9.3893
▁May	-9.3904
▁amazing	-9.39077
▁brother	-9.3909
▁appear	-9.3912
▁healthy	-9.39196
▁slightly	-9.39206
izing	-9.39298
▁bottom	-9.39378
▁mine	-9.39546
pa	-9.3972
▁edge	-9.3975
▁legal	-9.39753
▁operations	-9.39847
▁race	-9.39969
▁J	-9.39977
▁therefore	-9.40001
▁sun	-9.40065
▁drink	-9.40078
ious	-9.40147
▁Vi	-9.40163
▁John	-9.40188
▁article	-9.40215
▁g	-9.40235
▁types	-9.40477
▁k	-9.40568
▁pass	-9.40603
▁Of	-9.40655
▁insurance	-9.4071
▁learned	-9.40731
act	-9.40769
oc	-9.40775
▁capacity	-9.40775
▁flat	-9.40932
▁talked	-9.41001
▁require	-9.41109
▁margin	-9.41123
▁designed	-9.41136
▁scene	-9.41146
▁serious	-9.41196
▁paid	-9.41217
ea	-9.41435
▁easier	-9.41466
▁plant	-9.41715
▁arms	-9.41862
▁nearly	-9.41868
▁ourselves	-9.41936
bu	-9.4195
▁interested	-9.41992
▁hadn	-9.42039
▁stories	-9.42073
▁correct	-9.42126
▁Ha	-9.42153
▁allows	-9.42157
▁software	-9.42161
▁behavior	-9.42205
▁passed	-9.42233
Some	-9.42255
▁solutions	-9.42311
▁middle	-9.42376
ph	-9.42529
lic	-9.42634
▁shift	-9.42664
▁region	-9.42703
ey	-9.42811
▁improvement	-9.42822
▁discuss	-9.43067
▁Court	-9.43095
▁spread	-9.4313
▁option	-9.43181
▁eleven	-9.43236
▁update	-9.43237
▁appropriate	-9.43313
▁Most	-9.43313
▁expectations	-9.43413
Not	-9.43425
▁file	-9.43575
▁drop	-9.43602
▁generally	-9.43661
▁husband	-9.43779
▁produce	-9.43866
▁includes	-9.4392
▁developed	-9.44029
▁stick	-9.4403
▁charge	-9.44096
ology	-9.44104
▁poor	-9.44104
▁favorite	-9.44166
▁State	-9.44183
▁excited	-9.44264
▁Ho	-9.44298
▁campaign	-9.44417
▁mis	-9.44443
▁Here	-9.44468
▁comp	-9.44493
▁comfortable	-9.4455
▁leading	-9.44639
nd	-9.44678
▁achieve	-9.44686
ft	-9.4485
ier	-9.44858
▁kitchen	-9.44876
▁performed	-9.44891
▁yes	-9.44949
▁request	-9.44989
gu	-9.45039
▁English	-9.45175
ified	-9.45297
▁trouble	-9.45304
▁Pa	-9.45306
ath	-9.45338
▁stress	-9.45385
▁dog	-9.45433
▁traditional	-9.45451
▁mark	-9.45452
▁suggest	-9.4552
▁challenge	-9.45631
▁message	-9.45701
▁wind	-9.4572
▁manage	-9.4582
▁career	-9.45835
▁chair	-9.4585
▁ma	-9.45938
▁baby	-9.45949
ction	-9.45991
▁parts	-9.46126
▁Lo	-9.4617
▁strategic	-9.46212
▁increasing	-9.4623
▁programs	-9.4627
▁conference	-9.46369
▁Car	-9.46459
▁critical	-9.46486
▁watching	-9.46509
▁em	-9.46526
▁died	-9.4672
that	-9.46733
▁Ta	-9.46761
mb	-9.46879
▁worse	-9.46986
ries	-9.47002
▁location	-9.47149
▁detail	-9.47153
▁education	-9.47194
ah	-9.47248
▁click	-9.47255
▁dry	-9.47459
▁safety	-9.47591
▁protect	-9.47666
▁extremely	-9.47684
▁taste	-9.47846
▁perspective	-9.47898
▁fourteen	-9.47929
io	-9.47999
ble	-9.48011
ual	-9.48025
▁improved	-9.481
▁helped	-9.48118
▁boy	-9.48129
▁corner	-9.48155
▁bill	-9.48167
▁band	-9.4822
ile	-9.48229
▁dream	-9.48265
▁competitive	-9.48323
oo	-9.48475
▁pull	-9.48534
ability	-9.48534
ple	-9.48537
▁bank	-9.48544
▁earnings	-9.48614
▁presence	-9.48644
His	-9.48681
▁steps	-9.48751
▁device	-9.48825
▁Once	-9.48893
▁sc	-9.48964
▁worry	-9.49095
▁train	-9.49128
ru	-9.49205
▁seventeen	-9.49217
▁obviously	-9.49292
▁agreement	-9.49326
▁meant	-9.49419
▁pleased	-9.49442
▁useful	-9.49548
▁net	-9.49564
▁rule	-9.49572
ator	-9.49634
▁truly	-9.4968
▁th	-9.49708
▁ro	-9.49804
▁debt	-9.49814
▁Ne	-9.49878
Re	-9.49886
▁prepared	-9.49927
uff	-9.5001
J	-9.50076
▁initial	-9.50138
▁active	-9.50163
▁users	-9.50178
▁accept	-9.50199
ba	-9.50275
▁player	-9.503
▁South	-9.50318
▁guide	-9.50378
ible	-9.50803
▁determine	-9.51033
▁variety	-9.51049
▁dollar	-9.51081
▁modern	-9.51089
▁excellent	-9.51093
▁sitting	-9.51204
▁retail	-9.51443
▁secret	-9.5149
▁glass	-9.51524
▁continues	-9.51624
▁ship	-9.5165
nc	-9.51668
▁values	-9.51739
▁Ka	-9.51767
ill	-9.51863
▁investments	-9.51963
▁gl	-9.51974
▁primary	-9.51997
▁memory	-9.52035
▁gets	-9.52052
▁equipment	-9.52076
▁fl	-9.52217
▁tools	-9.52398
▁cl	-9.52413
▁Please	-9.52547
▁sex	-9.5265
▁basic	-9.52689
▁segment	-9.52748
▁catch	-9.52884
▁respond	-9.53403
qui	-9.53408
▁Also	-9.53471
ach	-9.53473
▁lo	-9.53541
▁sheet	-9.53656
▁exercise	-9.53661
▁temperature	-9.53679
▁factor	-9.53706
▁daily	-9.53737
▁block	-9.5381
▁maintain	-9.53867
▁City	-9.53914
for	-9.53958
▁handle	-9.54054
▁street	-9.54257
▁vote	-9.54258
▁wonderful	-9.54266
▁decide	-9.54329
men	-9.54362
▁combination	-9.5438
▁assets	-9.5444
▁die	-9.54488
▁rock	-9.54493
ear	-9.54562
▁se	-9.54563
▁hotel	-9.54689
ign	-9.54722
▁Thank	-9.54746
▁counter	-9.5486
▁micro	-9.54862
▁providing	-9.54869
▁popular	-9.5499
mp	-9.55031
▁Sp	-9.55032
▁reality	-9.55089
tter	-9.55219
▁experienced	-9.55232
▁h	-9.55274
▁star	-9.55278
▁fell	-9.55286
gg	-9.55304
▁sweet	-9.55335
▁motion	-9.55361
▁standing	-9.55389
▁Like	-9.55483
▁machine	-9.55537
▁smaller	-9.55555
▁apply	-9.55588
▁sea	-9.55606
▁profit	-9.55634
▁length	-9.55721
▁bi	-9.55733
▁Gr	-9.55761
▁display	-9.55783
▁offers	-9.55854
▁regular	-9.55865
▁generation	-9.55869
▁unit	-9.5593
▁foot	-9.55991
▁perform	-9.56011
▁movie	-9.56038
au	-9.5607
ure	-9.56096
▁link	-9.56109
▁pricing	-9.56116
▁planning	-9.56139
▁finding	-9.56168
ists	-9.56175
▁heavy	-9.56203
▁club	-9.56205
▁methods	-9.5624
▁client	-9.5629
▁daughter	-9.56347
▁TV	-9.56459
cur	-9.56548
▁listen	-9.56666
▁majority	-9.56708
▁concept	-9.56742
▁models	-9.56779
▁powerful	-9.56784
▁partner	-9.56803
▁driven	-9.56853
▁states	-9.56876
▁distance	-9.56958
▁observed	-9.56977
▁skills	-9.56979
▁weather	-9.57036
▁photo	-9.57149
ever	-9.57174
ient	-9.57208
▁farm	-9.57425
▁kill	-9.57449
▁via	-9.5749
▁thirteen	-9.57607
▁interview	-9.57631
▁suit	-9.57697
▁influence	-9.57703
▁bright	-9.57761
▁firm	-9.57839
ric	-9.57949
aw	-9.57985
▁creating	-9.58034
▁rules	-9.58169
▁realize	-9.58201
▁wants	-9.58217
ler	-9.58291
▁spoke	-9.5835
▁War	-9.58388
▁park	-9.58419
ps	-9.58549
▁instance	-9.58727
▁Jesus	-9.58774
▁wonder	-9.58871
port	-9.58881
▁station	-9.58895
▁Are	-9.58928
▁closer	-9.59003
▁places	-9.59005
pt	-9.59016
▁older	-9.59035
▁holding	-9.59125
▁wood	-9.59182
▁University	-9.5927
▁European	-9.59272
▁cycle	-9.59349
ium	-9.59414
▁launch	-9.59504
▁collection	-9.59638
▁images	-9.59756
▁phase	-9.59759
Well	-9.59827
▁tu	-9.59849
▁college	-9.59922
▁actions	-9.59925
▁trans	-9.59939
dge	-9.59948
ory	-9.60062
▁forget	-9.60158
▁caught	-9.60183
▁aware	-9.60246
▁camera	-9.60368
▁previously	-9.60372
▁finished	-9.60457
▁returned	-9.60634
▁pair	-9.60746
▁custom	-9.6091
▁map	-9.60925
▁signal	-9.61007
▁El	-9.61142
▁teams	-9.61145
board	-9.61271
▁leaving	-9.61408
wa	-9.61416
▁cloud	-9.61447
▁communication	-9.6147
▁Na	-9.61563
form	-9.61719
▁coffee	-9.61869
ned	-9.61926
ition	-9.61953
av	-9.61993
▁drug	-9.62049
▁draw	-9.62178
▁discussed	-9.62226
▁presentation	-9.62325
▁realized	-9.62386
▁supposed	-9.62413
▁North	-9.62472
▁slowly	-9.62532
▁raised	-9.62546
▁shut	-9.62603
▁church	-9.62696
By	-9.62818
▁Ga	-9.6283
lan	-9.62831
▁member	-9.62863
▁acquisition	-9.62864
▁despite	-9.62926
▁opinion	-9.62943
che	-9.6298
▁rich	-9.63058
▁tough	-9.63062
▁wear	-9.63104
▁imagine	-9.63114
▁consistent	-9.63163
vo	-9.63163
▁killed	-9.63234
▁regarding	-9.63344
ose	-9.63384
▁properties	-9.63416
▁sister	-9.63424
▁employees	-9.63471
▁described	-9.6356
▁West	-9.63618
nk	-9.63651
▁rain	-9.63653
▁treat	-9.63691
▁appeal	-9.63704
▁conversation	-9.6371
▁internal	-9.63748
▁relative	-9.63801
▁measures	-9.63811
ological	-9.63821
▁traffic	-9.63851
▁ta	-9.63855
▁push	-9.63857
ged	-9.64036
▁crowd	-9.64124
ng	-9.64219
light	-9.64227
▁finish	-9.64426
uc	-9.64514
▁reference	-9.6455
▁construction	-9.64569
▁confidence	-9.64733
▁degree	-9.64735
▁goals	-9.6475
▁former	-9.64828
▁audience	-9.64855
but	-9.64916
Even	-9.64948
gen	-9.64995
den	-9.65036
ade	-9.65147
▁cat	-9.65159
▁mass	-9.6519
▁smooth	-9.65252
▁lay	-9.6533
▁relatively	-9.65362
ase	-9.65368
▁setting	-9.6538
▁Pe	-9.65384
▁Di	-9.65407
▁Many	-9.65426
▁confident	-9.65465
▁doctor	-9.65519
▁thoughts	-9.65692
ification	-9.65828
▁From	-9.65851
▁happening	-9.65942
How	-9.66085
▁statement	-9.66085
over	-9.66102
▁spending	-9.66103
▁thus	-9.66115
od	-9.66434
▁Per	-9.6652
▁separate	-9.66611
▁minute	-9.66632
▁roll	-9.66736
▁garden	-9.668
▁chain	-9.66839
▁alternative	-9.66878
▁enter	-9.6702
▁covered	-9.67128
▁watched	-9.67206
ki	-9.6723
ren	-9.67241
▁anyway	-9.67369
▁absolutely	-9.67374
▁judge	-9.67387
right	-9.67421
▁completed	-9.67525
▁walking	-9.67597
back	-9.67626
▁forwardlooking	-9.67658
▁frame	-9.67664
▁science	-9.67664
▁changing	-9.67686
▁ch	-9.67725
Although	-9.67749
▁becomes	-9.67837
▁mostly	-9.67839
lar	-9.67847
▁pan	-9.67856
▁Man	-9.67856
▁reduction	-9.67861
▁House	-9.67985
▁budget	-9.68034
▁gain	-9.68068
▁Se	-9.68174
▁ring	-9.68194
▁background	-9.68197
▁rise	-9.68232
▁increases	-9.68286
▁People	-9.68389
▁independent	-9.68403
▁Who	-9.68449
ep	-9.68577
▁requires	-9.68578
X	-9.68589
▁presented	-9.68648
▁tea	-9.68691
▁carry	-9.68701
▁bag	-9.68723
▁na	-9.68834
▁profile	-9.68901
▁putting	-9.68916
▁stream	-9.68979
▁Mc	-9.6899
▁discussion	-9.69067
▁smart	-9.69068
▁Ar	-9.69077
▁transition	-9.69096
▁gr	-9.69195
▁ha	-9.69198
Yes	-9.69202
▁India	-9.69312
▁mobile	-9.69348
▁offered	-9.69394
ral	-9.69415
▁pe	-9.69464
▁li	-9.69481
▁feature	-9.69535
▁fix	-9.69612
fa	-9.69643
▁election	-9.69643
▁Oh	-9.69762
▁London	-9.69866
▁opening	-9.69874
▁Although	-9.69984
▁sounds	-9.70037
▁cap	-9.70158
▁asking	-9.70187
▁recommend	-9.70189
▁World	-9.7021
▁reflect	-9.70252
▁double	-9.70398
tan	-9.70401
▁task	-9.7043
▁camp	-9.70449
▁hate	-9.7045
▁differ	-9.70496
of	-9.70505
▁tree	-9.70577
▁dinner	-9.70596
▁sh	-9.70686
▁fish	-9.70783
tting	-9.70836
▁challenges	-9.709
▁bus	-9.71081
▁Sha	-9.71117
▁sold	-9.71156
▁lu	-9.71186
▁caused	-9.71241
ze	-9.71297
▁engine	-9.7154
▁exist	-9.71605
▁load	-9.71617
ay	-9.71716
▁applications	-9.7174
▁military	-9.71771
▁lived	-9.7179
▁exchange	-9.71813
▁noticed	-9.71837
▁nor	-9.71842
▁weekend	-9.71858
▁January	-9.71994
▁advice	-9.72007
▁smell	-9.72095
▁identify	-9.72101
ened	-9.72163
▁driver	-9.72163
▁filled	-9.7228
▁Jo	-9.72301
Do	-9.72303
▁smiled	-9.72319
▁eventually	-9.72328
ris	-9.72434
▁Bar	-9.7251
▁keeping	-9.72529
▁title	-9.72541
▁economy	-9.7262
▁determined	-9.72631
▁biggest	-9.72675
▁Ki	-9.72758
▁mu	-9.72807
▁quiet	-9.72822
low	-9.72828
▁sa	-9.72925
▁battle	-9.72994
▁hearing	-9.73195
▁desire	-9.73208
▁announced	-9.73215
ther	-9.7324
▁assume	-9.73255
▁context	-9.73275
▁society	-9.73314
▁join	-9.73334
▁materials	-9.7349
▁offering	-9.73526
▁cha	-9.73557
▁trend	-9.73601
▁meaning	-9.73649
▁glance	-9.73765
▁vision	-9.73771
▁pen	-9.73825
▁Christian	-9.73845
▁sites	-9.73876
▁advance	-9.73879
▁object	-9.73906
▁explore	-9.7397
off	-9.73981
▁vehicle	-9.73992
▁expand	-9.73999
▁families	-9.74039
▁except	-9.74075
▁fan	-9.74205
▁March	-9.7424
▁primarily	-9.74326
▁relevant	-9.74327
▁fat	-9.74489
▁nation	-9.74514
▁radio	-9.74619
▁student	-9.74681
▁evening	-9.74704
▁sample	-9.74745
▁managed	-9.74919
▁welcome	-9.75107
▁Ri	-9.75113
az	-9.75141
▁reduced	-9.7515
▁devices	-9.75183
▁limit	-9.75249
▁relationships	-9.75319
▁faster	-9.75536
row	-9.7558
▁weak	-9.75585
▁proud	-9.75589
▁ob	-9.75656
▁essential	-9.75688
▁shared	-9.75695
▁repair	-9.75709
▁beat	-9.75761
▁enable	-9.75765
ments	-9.75807
▁Pi	-9.75843
▁measure	-9.75854
▁fill	-9.75902
▁released	-9.75936
▁continuing	-9.75937
▁sta	-9.76008
ult	-9.76078
▁placed	-9.76205
▁remove	-9.76212
▁girls	-9.76247
gi	-9.7628
▁shook	-9.76292
▁differences	-9.76311
▁responsible	-9.76346
▁sale	-9.76349
tu	-9.76475
▁competition	-9.76487
▁metal	-9.76494
▁decline	-9.76497
ised	-9.76515
tra	-9.76612
▁reaction	-9.76643
▁fruit	-9.76682
▁error	-9.76743
▁individuals	-9.76847
▁select	-9.76975
▁connection	-9.77005
▁rec	-9.77012
▁initiatives	-9.77051
▁none	-9.7711
▁Since	-9.7713
▁stores	-9.77206
▁tool	-9.77249
▁grew	-9.77254
▁California	-9.77262
▁Christ	-9.77264
▁central	-9.77283
▁mention	-9.77328
▁fe	-9.77333
▁president	-9.77349
cent	-9.77417
▁pieces	-9.77473
▁novel	-9.77487
▁par	-9.77499
▁prefer	-9.7751
▁appears	-9.7775
▁parties	-9.77753
▁Every	-9.77804
▁picked	-9.77822
▁status	-9.77837
▁Christmas	-9.77842
vis	-9.77909
▁identified	-9.77935
▁holiday	-9.78074
▁surprise	-9.78082
▁delivery	-9.78169
▁June	-9.78225
▁letter	-9.78241
▁decisions	-9.78361
cc	-9.78367
▁telling	-9.78432
ran	-9.78435
▁ba	-9.78494
▁failure	-9.78506
▁plenty	-9.7855
▁package	-9.78561
▁Chinese	-9.7864
▁suddenly	-9.78669
▁miss	-9.78673
▁bigger	-9.78753
▁ended	-9.78769
Of	-9.78835
▁becoming	-9.78839
▁pattern	-9.78843
▁President	-9.78861
▁foreign	-9.78862
▁largest	-9.78868
▁testing	-9.7903
Be	-9.79069
▁helps	-9.79143
▁plate	-9.79244
▁Pre	-9.79248
▁gift	-9.79258
▁journey	-9.79264
▁describe	-9.79281
▁channel	-9.79343
▁promise	-9.79352
med	-9.79353
An	-9.79398
▁born	-9.794
▁horse	-9.79465
pi	-9.79497
▁established	-9.79587
▁chest	-9.7961
▁helpful	-9.79688
ery	-9.79788
▁consumer	-9.79803
part	-9.79808
▁knows	-9.79811
▁author	-9.79824
▁defendant	-9.79839
▁elements	-9.79885
▁mode	-9.79921
▁British	-9.79978
▁proceed	-9.79988
▁ride	-9.79999
▁arrived	-9.8
▁fingers	-9.80021
▁cup	-9.80118
▁failed	-9.80226
▁Mi	-9.80242
▁bought	-9.80244
uck	-9.80259
▁recipe	-9.80299
rk	-9.80339
▁jump	-9.80352
fer	-9.80363
▁applied	-9.80386
▁missing	-9.80402
▁wine	-9.80417
▁schedule	-9.80441
▁broken	-9.80455
▁winter	-9.80521
▁appeared	-9.80532
istic	-9.80538
▁selling	-9.80545
▁organic	-9.8061
▁shoulder	-9.80623
▁dress	-9.8069
▁mission	-9.80781
▁partners	-9.80803
▁highest	-9.80893
▁expansion	-9.81007
▁leg	-9.81028
▁pool	-9.81079
▁whose	-9.81091
▁annual	-9.81204
▁shall	-9.81242
▁afternoon	-9.81307
▁otherwise	-9.81346
▁September	-9.814
▁solve	-9.81456
▁comfort	-9.81466
▁Park	-9.81613
▁Sc	-9.81686
▁pop	-9.81693
▁rep	-9.81726
▁seek	-9.81743
▁Gu	-9.81768
▁San	-9.81807
▁prove	-9.81855
▁raise	-9.81856
▁nu	-9.8189
▁Ex	-9.8192
bs	-9.81948
ug	-9.81973
ox	-9.8203
▁typically	-9.82112
▁processes	-9.82126
▁download	-9.82153
▁risks	-9.82216
▁pictures	-9.82264
▁guard	-9.82302
▁generate	-9.82315
▁animals	-9.82316
work	-9.8237
gan	-9.82397
hy	-9.82523
▁National	-9.82551
▁leadership	-9.82588
▁fixed	-9.82593
▁December	-9.82625
str	-9.82684
▁master	-9.82724
her	-9.82735
▁ideal	-9.82845
par	-9.82906
▁portion	-9.82908
▁spring	-9.82916
pp	-9.8295
▁faith	-9.83005
ina	-9.83037
▁expenses	-9.83126
▁sight	-9.83136
▁requirements	-9.83142
▁lock	-9.83145
▁bio	-9.83166
▁ci	-9.83174
▁snow	-9.83242
Just	-9.83292
▁Google	-9.83345
▁weren	-9.83348
▁ice	-9.83354
▁surprised	-9.83412
▁Da	-9.83452
▁command	-9.83496
Because	-9.83496
▁efficiency	-9.83511
▁showing	-9.83515
▁invest	-9.83522
▁sha	-9.83555
kin	-9.83573
▁eating	-9.83594
▁leader	-9.83609
▁operation	-9.83657
▁legs	-9.83816
ake	-9.83817
▁tight	-9.8386
▁offset	-9.83905
▁sick	-9.83944
▁pa	-9.83944
▁Will	-9.83958
▁committed	-9.8397
▁button	-9.83985
▁theory	-9.8401
rc	-9.84111
▁federal	-9.84114
nce	-9.84134
val	-9.84219
▁Paul	-9.84296
▁married	-9.84352
▁random	-9.84461
▁technical	-9.84471
▁empty	-9.84505
▁wrote	-9.84538
▁latest	-9.84541
▁visual	-9.84572
pro	-9.84636
▁neck	-9.84676
▁sector	-9.84796
pl	-9.8483
Or	-9.84895
▁recognize	-9.84956
▁truck	-9.85026
▁tissue	-9.85032
▁okay	-9.85062
▁accident	-9.85118
▁efficient	-9.85138
▁Did	-9.85143
▁noise	-9.85153
▁aim	-9.85154
▁Ben	-9.85169
▁clothes	-9.85183
▁Indian	-9.85197
▁Cor	-9.85224
cy	-9.85229
▁timing	-9.85379
▁stronger	-9.85437
▁photos	-9.85441
▁commitment	-9.85447
▁April	-9.85513
my	-9.85572
▁remind	-9.85614
▁leverage	-9.85658
Also	-9.85784
ically	-9.85786
▁margins	-9.85803
▁honest	-9.8583
▁obvious	-9.85834
▁afraid	-9.85842
▁Obama	-9.85852
mark	-9.85893
▁published	-9.85923
First	-9.86009
▁stone	-9.86021
▁served	-9.86171
▁appreciate	-9.86247
▁pet	-9.86266
▁document	-9.86317
▁murder	-9.864
▁sad	-9.86404
▁helping	-9.8651
▁expensive	-9.86542
▁busy	-9.86551
▁bone	-9.86562
use	-9.86622
▁familiar	-9.86629
wi	-9.86704
▁French	-9.86717
▁loan	-9.86827
▁Y	-9.86891
▁David	-9.86918
▁protection	-9.86949
cr	-9.87022
▁located	-9.87254
▁therapy	-9.87254
Once	-9.87303
▁Each	-9.87331
▁treated	-9.87387
▁specifically	-9.87388
▁conclusion	-9.87394
▁claims	-9.87449
▁gra	-9.87458
▁kid	-9.8759
▁trees	-9.87635
▁song	-9.87698
▁collect	-9.87706
▁earth	-9.87718
▁selection	-9.87847
▁switch	-9.8786
▁transfer	-9.87888
▁characters	-9.87912
▁somewhere	-9.87932
▁peace	-9.87945
▁England	-9.88105
▁throw	-9.88119
▁DNA	-9.88172
▁buying	-9.88308
▁strange	-9.88312
▁Sunday	-9.88325
▁bottle	-9.88443
▁gold	-9.88488
▁route	-9.88531
▁connect	-9.88586
▁mail	-9.88639
▁species	-9.88673
ched	-9.88676
▁August	-9.88756
▁attempt	-9.88786
▁protein	-9.8888
▁reports	-9.88883
▁impossible	-9.88955
▁improving	-9.88985
▁auto	-9.89056
▁football	-9.89064
▁slide	-9.8912
▁Su	-9.89166
▁boat	-9.89216
app	-9.89342
▁Internet	-9.89353
▁developing	-9.89377
▁fuel	-9.89423
▁removed	-9.89471
▁totally	-9.89554
▁Sometimes	-9.89571
▁unless	-9.8963
▁fans	-9.89659
▁threat	-9.89662
▁remained	-9.8969
▁proper	-9.89725
▁crack	-9.89743
▁October	-9.89743
▁argument	-9.89768
▁mental	-9.89776
▁anymore	-9.89798
▁Day	-9.8982
▁element	-9.89841
▁liked	-9.90077
ute	-9.90078
▁pocket	-9.90086
▁root	-9.901
▁More	-9.90105
▁cast	-9.90114
▁dance	-9.90189
▁Act	-9.90223
ec	-9.9023
▁Where	-9.90243
▁En	-9.90253
▁combined	-9.90354
▁defense	-9.90406
▁carried	-9.90502
▁wild	-9.90561
▁nodded	-9.90618
▁label	-9.90642
▁represent	-9.90679
ration	-9.90914
▁pace	-9.90943
▁server	-9.90958
▁soul	-9.91057
▁female	-9.91112
▁thick	-9.91145
▁mom	-9.91203
▁expense	-9.91248
▁thin	-9.91309
▁Instead	-9.91362
▁fundamental	-9.91418
▁spirit	-9.91451
▁operational	-9.9148
▁concerned	-9.91514
fully	-9.91523
▁carefully	-9.91547
▁lots	-9.91565
Since	-9.91703
▁decrease	-9.91732
▁sharp	-9.91754
▁regard	-9.91775
▁laugh	-9.91813
▁coach	-9.91864
▁conduct	-9.91903
▁speaking	-9.91953
ture	-9.91963
▁adding	-9.91964
rus	-9.9197
▁calm	-9.91976
ency	-9.92021
▁connected	-9.92021
ney	-9.92023
▁feels	-9.92067
eg	-9.92081
▁crime	-9.92169
▁emotional	-9.92196
▁contrast	-9.92227
▁su	-9.92268
▁Black	-9.9239
amp	-9.92471
▁dropped	-9.92478
▁sorry	-9.92565
▁manner	-9.92624
▁promote	-9.92662
▁exciting	-9.92671
St	-9.9268
▁July	-9.92752
ome	-9.92767
ern	-9.9279
ctor	-9.92826
ker	-9.9283
rate	-9.92892
▁UK	-9.92894
▁leaves	-9.92905
▁creative	-9.9292
▁investigation	-9.92982
▁infection	-9.93034
▁produced	-9.93057
za	-9.93151
▁Their	-9.93308
▁sexual	-9.93386
▁obtained	-9.93392
▁lips	-9.93419
▁lie	-9.93555
▁leaders	-9.93618
▁workers	-9.93778
▁entirely	-9.93897
car	-9.93905
▁secure	-9.93908
▁estate	-9.93915
▁willing	-9.93966
From	-9.94007
▁sharing	-9.9404
▁Mu	-9.94062
▁Hu	-9.94117
ane	-9.94127
▁layer	-9.94229
▁November	-9.94243
▁Facebook	-9.94286
▁German	-9.94314
▁Dr	-9.94343
▁odd	-9.94354
▁affected	-9.94513
▁Have	-9.94552
▁PC	-9.94632
▁findings	-9.94658
▁escape	-9.9466
▁fail	-9.9466
▁turning	-9.94691
▁crazy	-9.94692
so	-9.9473
cu	-9.94731
▁pushed	-9.94843
▁capabilities	-9.94846
field	-9.94971
ham	-9.94982
▁loud	-9.95019
▁severe	-9.95021
▁anywhere	-9.95026
▁plants	-9.9505
▁score	-9.95053
▁East	-9.95139
ants	-9.95169
▁bear	-9.95236
lf	-9.95262
▁fund	-9.95266
tain	-9.953
ew	-9.95358
▁obtain	-9.95384
▁possibly	-9.95404
har	-9.95411
▁discover	-9.95428
▁ti	-9.9544
▁freedom	-9.95491
▁mistake	-9.95515
▁strategies	-9.95606
▁pipeline	-9.95646
▁miles	-9.95688
▁shouldn	-9.95705
Your	-9.95718
▁prison	-9.95799
▁everybody	-9.95812
▁cur	-9.95835
nu	-9.95849
▁brief	-9.9588
▁classes	-9.95888
▁sky	-9.95921
▁inventory	-9.95943
▁missed	-9.96008
▁innovation	-9.96051
▁apart	-9.96085
▁comparison	-9.96222
▁Ju	-9.9623
▁entered	-9.96238
▁planned	-9.96291
▁Therefore	-9.96325
serv	-9.96327
▁percentage	-9.96347
▁calls	-9.96421
▁beside	-9.9643
▁usual	-9.96512
▁Mon	-9.96524
▁occur	-9.9657
▁transaction	-9.96635
▁sources	-9.9666
▁properly	-9.96701
▁Good	-9.96748
fo	-9.96763
▁wearing	-9.9677
▁delivered	-9.9681
▁print	-9.96827
During	-9.96845
▁express	-9.96902
▁corporate	-9.96907
▁exposure	-9.96907
▁lunch	-9.96929
ces	-9.96964
▁male	-9.96994
▁refer	-9.97027
▁understood	-9.97118
▁knowing	-9.97118
▁believed	-9.97145
▁remaining	-9.97169
fin	-9.97175
▁Two	-9.97177
▁constant	-9.97317
▁Sam	-9.97352
▁dad	-9.97391
▁internet	-9.97402
▁flash	-9.97503
▁tour	-9.97551
▁mountain	-9.97591
▁dangerous	-9.97606
▁pack	-9.97614
▁Before	-9.97625
▁ongoing	-9.97638
▁twice	-9.9764
▁Other	-9.97692
ai	-9.97766
▁license	-9.97858
▁demonstrate	-9.97863
▁mi	-9.97955
▁Tra	-9.98008
▁wedding	-9.98018
iness	-9.98052
comp	-9.98101
▁fairly	-9.98156
▁forced	-9.98182
if	-9.9819
▁stable	-9.98223
pped	-9.98224
▁yield	-9.98334
▁trends	-9.984
▁jobs	-9.98431
▁functions	-9.98457
wn	-9.98483
▁surgery	-9.98497
▁harm	-9.98507
▁animal	-9.98556
▁Those	-9.98719
▁returns	-9.98733
▁Col	-9.98747
▁broad	-9.98759
ates	-9.98769
Before	-9.98889
▁Both	-9.98913
which	-9.98922
▁Great	-9.98928
▁smoke	-9.9894
▁cook	-9.9897
▁apartment	-9.99013
▁earn	-9.99028
ja	-9.99048
▁White	-9.99051
▁recovery	-9.99095
ace	-9.99244
▁circumstances	-9.99321
cus	-9.99338
▁Fa	-9.9938
▁alive	-9.99396
▁marriage	-9.9946
▁extend	-9.99477
▁brown	-9.9954
▁challenging	-9.99543
▁belong	-9.99548
▁operate	-9.99568
Let	-9.99582
press	-9.9964
ue	-9.99641
▁intention	-9.99647
Most	-9.99718
▁rose	-9.99779
▁contain	-9.99798
▁talent	-9.99875
▁attractive	-9.99938
▁colour	-10.0005
▁reasonable	-10.0006
▁necessarily	-10.0008
▁payment	-10.0009
▁glad	-10.002
▁concern	-10.0022
▁whom	-10.0023
▁symptoms	-10.0026
▁Americans	-10.0028
▁cards	-10.0041
ify	-10.0044
▁degrees	-10.0048
air	-10.0049
▁sugar	-10.0049
▁coverage	-10.0051
▁flight	-10.0059
▁importance	-10.006
▁fashion	-10.0063
▁infrastructure	-10.0064
▁responsibility	-10.0074
▁turns	-10.009
▁director	-10.0097
▁tired	-10.0099
▁assist	-10.0101
▁storage	-10.0112
▁components	-10.0114
▁Washington	-10.012
ians	-10.0129
▁hell	-10.0134
▁enjoyed	-10.0135
ole	-10.0136
top	-10.014
▁See	-10.0141
▁waste	-10.0144
qu	-10.0144
▁insight	-10.0151
▁bowl	-10.0152
ix	-10.0156
▁pounds	-10.0157
▁bedroom	-10.0158
▁concentration	-10.0161
▁salt	-10.0161
▁wave	-10.0162
▁mess	-10.0168
▁organ	-10.0173
▁techniques	-10.0179
Her	-10.0185
▁speech	-10.0186
▁basically	-10.0208
▁versus	-10.0211
▁sin	-10.0212
▁copy	-10.0217
▁quarters	-10.0222
ctic	-10.0223
▁predict	-10.0223
▁Red	-10.0228
▁Har	-10.0231
▁tumor	-10.0238
▁reveal	-10.0241
▁administration	-10.0246
▁accounts	-10.0253
▁enhance	-10.0258
▁coat	-10.0266
▁Ja	-10.0268
▁restaurant	-10.0269
▁largely	-10.0275
▁drugs	-10.0275
▁spin	-10.0282
▁bringing	-10.0283
▁lift	-10.0288
▁trail	-10.0289
▁department	-10.0292
▁struggle	-10.0297
▁topic	-10.0297
▁Cha	-10.0299
▁shareholders	-10.0303
▁detailed	-10.0306
▁birth	-10.0308
▁teach	-10.0313
▁sequence	-10.0313
▁Friday	-10.0314
▁input	-10.0321
hu	-10.0328
▁Che	-10.0328
▁sports	-10.0331
▁narrow	-10.0332
▁deposit	-10.0348
▁self	-10.035
house	-10.0354
▁deserve	-10.0357
▁February	-10.0357
▁judgment	-10.0358
▁rights	-10.0361
ered	-10.0363
▁silence	-10.0369
mate	-10.0376
▁log	-10.0376
▁item	-10.0383
▁leads	-10.0385
▁friendly	-10.0387
ax	-10.0387
▁feed	-10.0387
▁selected	-10.0401
▁tail	-10.0402
▁sufficient	-10.0406
bar	-10.0411
du	-10.0411
▁cream	-10.0415
▁Ch	-10.042
room	-10.042
▁perfectly	-10.0423
▁teeth	-10.0427
▁extent	-10.0427
▁achieved	-10.0434
▁underlying	-10.0434
▁boys	-10.0437
Y	-10.0437
▁beach	-10.044
▁proposed	-10.0443
▁encourage	-10.0446
▁Canada	-10.0469
▁circle	-10.0469
▁le	-10.0477
▁rent	-10.0478
▁plastic	-10.0486
▁asset	-10.0489
▁paying	-10.0491
▁High	-10.0501
▁facility	-10.0504
▁outcome	-10.0513
▁paint	-10.0518
▁debate	-10.0525
▁desk	-10.0525
▁wondering	-10.0527
▁equal	-10.0528
▁prop	-10.0532
▁participants	-10.0532
▁manager	-10.0534
▁kick	-10.0535
▁France	-10.054
▁panel	-10.0543
ash	-10.0543
▁fighting	-10.0546
▁shoot	-10.0552
down	-10.0553
▁schools	-10.0555
▁joy	-10.0559
▁Lord	-10.0565
▁flavor	-10.0566
▁square	-10.057
▁row	-10.0573
▁meat	-10.0575
▁concerns	-10.058
▁names	-10.0584
▁suggested	-10.0585
▁outlook	-10.0587
▁thanks	-10.0589
ties	-10.059
▁depend	-10.0591
▁matters	-10.0602
▁district	-10.0609
▁favor	-10.0613
▁views	-10.0615
lor	-10.0616
▁studied	-10.0617
▁establish	-10.0617
▁signs	-10.0619
▁starts	-10.0623
Here	-10.0628
▁opposite	-10.0629
▁da	-10.0635
▁fiscal	-10.0643
▁worst	-10.0644
▁Ru	-10.0646
▁adjust	-10.0647
▁mar	-10.0647
▁Another	-10.0647
▁sentence	-10.0647
▁teaching	-10.0648
▁acid	-10.0649
all	-10.0652
▁possibility	-10.0654
▁execution	-10.0656
▁indeed	-10.0657
▁joint	-10.0657
▁rid	-10.066
yn	-10.0661
▁injury	-10.0672
▁Street	-10.0679
▁conflict	-10.0685
ky	-10.0688
win	-10.0689
▁regions	-10.069
▁bond	-10.0697
▁reward	-10.0699
▁pitch	-10.0702
▁laws	-10.0712
▁laughed	-10.0713
▁communities	-10.0715
cor	-10.072
▁du	-10.073
▁somewhat	-10.0734
▁Only	-10.0735
▁river	-10.0744
▁billion	-10.0751
▁County	-10.0751
▁discovered	-10.0752
▁argue	-10.0755
▁qua	-10.0758
▁samples	-10.0768
▁Nor	-10.0773
▁Yet	-10.0776
▁category	-10.078
▁survey	-10.0787
▁named	-10.0795
▁official	-10.0798
illa	-10.0805
▁facilities	-10.0808
▁component	-10.0811
▁rare	-10.0815
▁effectively	-10.0816
▁advanced	-10.0825
nie	-10.0826
▁parent	-10.0826
▁angry	-10.0827
▁gap	-10.0832
▁roof	-10.0833
▁install	-10.0838
▁foundation	-10.0838
▁tri	-10.0847
▁occurred	-10.0847
late	-10.0849
gged	-10.0862
nal	-10.0864
▁strike	-10.0871
▁agreed	-10.0876
▁Si	-10.0878
▁border	-10.0882
▁defend	-10.0885
▁filter	-10.0893
▁ultimately	-10.0894
▁ne	-10.0896
▁sand	-10.09
▁meaningful	-10.0901
▁procedure	-10.0902
ject	-10.0904
▁Thus	-10.091
▁experiment	-10.0918
oma	-10.092
▁massive	-10.092
▁stuck	-10.0923
ju	-10.0924
ening	-10.093
▁careful	-10.0948
▁tiny	-10.0956
▁intended	-10.0957
▁During	-10.0962
▁Pri	-10.0965
▁finger	-10.0967
point	-10.0969
▁century	-10.097
▁shopping	-10.097
▁beauty	-10.0976
▁depending	-10.0977
▁introduced	-10.0981
log	-10.0983
▁spa	-10.0998
▁Ti	-10.1004
▁calling	-10.1008
▁Second	-10.1012
▁pot	-10.1018
ters	-10.1023
▁stepped	-10.1023
▁cars	-10.1027
rr	-10.1028
▁App	-10.1029
▁investors	-10.103
▁Str	-10.1031
▁hi	-10.1037
▁Cl	-10.1049
▁hall	-10.105
▁protest	-10.1052
rry	-10.1053
▁fi	-10.1054
▁closely	-10.1056
▁broke	-10.1057
▁Was	-10.106
▁grown	-10.1061
▁labor	-10.1063
▁Take	-10.1068
▁Jack	-10.107
▁worried	-10.1072
▁cu	-10.1073
▁adapt	-10.108
▁medium	-10.108
▁Perhaps	-10.1085
▁neither	-10.1088
▁routine	-10.1088
▁m	-10.1089
▁patterns	-10.1092
▁feelings	-10.1093
▁experiences	-10.1112
ob	-10.1114
▁appearance	-10.1115
▁forms	-10.1124
▁abuse	-10.1127
▁gotten	-10.1129
▁bike	-10.113
▁nose	-10.113
tive	-10.1131
▁diet	-10.1132
can	-10.1133
▁x	-10.1135
▁dynamic	-10.1138
▁listening	-10.1144
▁explained	-10.1145
▁mod	-10.1147
▁units	-10.1148
▁shock	-10.115
▁wheel	-10.1153
▁Tom	-10.1154
▁ear	-10.1156
▁pointed	-10.1159
▁admit	-10.116
yl	-10.1161
▁allowing	-10.1168
▁monitor	-10.1173
lation	-10.1173
▁adult	-10.1176
▁Make	-10.1181
▁King	-10.1189
▁Saturday	-10.1191
▁habit	-10.1192
▁blow	-10.1211
▁brands	-10.1216
▁constantly	-10.1216
▁harder	-10.1222
Therefore	-10.1223
▁burn	-10.1227
▁contains	-10.1227
▁grade	-10.1231
▁Ad	-10.1236
▁chemical	-10.124
▁Fi	-10.1245
▁momentum	-10.1248
▁files	-10.1253
▁stayed	-10.1261
▁string	-10.1264
▁contribute	-10.1264
▁milk	-10.1265
▁database	-10.1267
▁island	-10.1269
▁everywhere	-10.1284
▁orders	-10.129
▁tomorrow	-10.1294
▁exact	-10.1297
▁agent	-10.13
book	-10.1302
▁delay	-10.1304
▁religious	-10.1304
▁silent	-10.1306
▁bound	-10.1306
▁chart	-10.131
ulation	-10.1312
▁losing	-10.1312
▁strengthen	-10.1318
▁tests	-10.1324
▁fees	-10.1336
▁defined	-10.134
▁numerous	-10.1341
eration	-10.1347
rop	-10.1349
▁split	-10.1353
▁gu	-10.1354
▁Finally	-10.1355
Many	-10.1356
▁Earth	-10.1357
▁moral	-10.1364
▁seriously	-10.1365
▁standards	-10.1367
▁Russian	-10.1377
▁external	-10.138
▁planet	-10.1382
▁recognized	-10.1385
▁supported	-10.1386
▁tro	-10.1389
▁Michael	-10.1397
▁funny	-10.1404
▁James	-10.1406
▁fabric	-10.141
uring	-10.141
▁bra	-10.1416
▁walls	-10.1419
▁hang	-10.142
▁Am	-10.1424
▁integration	-10.143
▁feedback	-10.1439
▁iron	-10.1448
▁maintenance	-10.1451
▁Fo	-10.1458
roll	-10.1465
▁vary	-10.1466
▁conclude	-10.1467
▁pages	-10.1468
▁plane	-10.1476
ets	-10.1477
▁funds	-10.148
▁mainly	-10.1481
▁closing	-10.1485
▁transformation	-10.1487
▁Tri	-10.1493
▁considering	-10.1509
▁reserve	-10.1514
▁mini	-10.1518
▁cheap	-10.1523
▁gate	-10.1528
▁occasion	-10.1537
▁storm	-10.1537
▁signed	-10.154
▁forces	-10.1543
▁plus	-10.1547
▁manufacturing	-10.1547
▁transport	-10.1548
vent	-10.1549
▁instrument	-10.1551
▁depends	-10.1555
▁curve	-10.1559
▁bathroom	-10.1561
han	-10.1564
▁joined	-10.1565
Con	-10.157
▁recall	-10.1571
▁valuable	-10.1573
▁aspects	-10.1576
▁capture	-10.158
▁shirt	-10.1591
▁Israel	-10.1598
▁consumers	-10.16
▁proof	-10.1605
▁accepted	-10.1605
▁improvements	-10.1605
▁revealed	-10.161
▁decades	-10.1612
▁unable	-10.1614
▁owner	-10.1619
lk	-10.1622
▁react	-10.1624
▁ratio	-10.1627
▁grand	-10.1628
▁somehow	-10.163
ators	-10.1631
▁association	-10.1631
▁craft	-10.165
▁description	-10.1651
▁format	-10.1654
▁Ser	-10.1664
Thank	-10.1665
▁fer	-10.1668
▁blame	-10.1672
▁compare	-10.1674
▁tall	-10.168
▁bread	-10.1683
▁Texas	-10.1683
cal	-10.1684
▁forever	-10.1693
▁Time	-10.1695
rie	-10.1698
▁parameters	-10.1701
▁School	-10.1702
▁aside	-10.1706
▁shadow	-10.1708
▁bodies	-10.1709
▁gene	-10.1711
▁Bu	-10.1715
ack	-10.1736
▁winning	-10.1738
▁Russia	-10.1739
▁evolution	-10.174
▁ph	-10.1743
how	-10.1744
▁recorded	-10.1746
▁resulting	-10.1748
▁colors	-10.175
▁incident	-10.1752
▁para	-10.1755
▁surrounding	-10.1762
▁gaze	-10.1772
▁practical	-10.1775
▁stared	-10.1786
▁cities	-10.1787
▁television	-10.1789
Ma	-10.179
▁chicken	-10.1792
lon	-10.1792
▁taught	-10.1793
▁Wi	-10.1795
ister	-10.1799
▁def	-10.1804
ung	-10.1808
ement	-10.1809
some	-10.181
▁folks	-10.181
▁hasn	-10.1813
▁processing	-10.1815
▁moments	-10.1816
▁brush	-10.1817
▁Fe	-10.1818
▁Which	-10.182
▁hoping	-10.1822
▁indicate	-10.1824
▁tears	-10.1826
▁stretch	-10.1827
▁al	-10.1829
▁dig	-10.183
▁pray	-10.1834
▁repeat	-10.1836
▁script	-10.1839
▁electronic	-10.185
▁senior	-10.1851
▁Mac	-10.1854
▁Fl	-10.1863
▁historical	-10.1872
▁windows	-10.1877
ford	-10.1884
▁Any	-10.1886
▁afford	-10.1886
▁episode	-10.1891
▁Air	-10.19
▁policies	-10.1907
▁z	-10.1908
▁magic	-10.1913
▁terrible	-10.1913
▁substantial	-10.1914
Finally	-10.1916
▁answers	-10.1918
atory	-10.192
▁pin	-10.1922
▁thousands	-10.1925
Q	-10.1926
▁consideration	-10.1927
ana	-10.1934
with	-10.1936
▁measured	-10.1937
uch	-10.1943
Please	-10.1944
▁profitability	-10.1945
▁Joe	-10.1946
▁runs	-10.1948
▁peak	-10.1951
▁r	-10.1952
cho	-10.1957
▁funding	-10.1958
▁guarantee	-10.1964
▁flu	-10.1966
▁Get	-10.1966
▁tested	-10.1966
▁Germany	-10.1967
▁honor	-10.1968
▁Still	-10.197
oid	-10.1973
▁relief	-10.1977
▁Department	-10.1978
Don	-10.1986
▁rat	-10.1989
af	-10.1996
▁teacher	-10.1998
▁potentially	-10.2001
▁counsel	-10.2006
well	-10.201
matic	-10.2013
ef	-10.2015
ken	-10.202
▁sweat	-10.2023
▁indicated	-10.2037
▁photograph	-10.2041
▁semi	-10.2052
try	-10.2053
▁filed	-10.2053
▁Japan	-10.2054
▁shoes	-10.2055
▁prepare	-10.2061
▁blind	-10.2063
ette	-10.2064
load	-10.2065
▁alcohol	-10.2068
▁drove	-10.2083
day	-10.2087
▁climate	-10.2094
▁Africa	-10.2096
▁trick	-10.2097
lam	-10.21
▁Comp	-10.2102
▁records	-10.2108
▁deals	-10.2108
▁violence	-10.2112
▁advertising	-10.2113
▁vast	-10.2115
read	-10.2123
▁expressed	-10.2124
▁functional	-10.2124
▁technique	-10.2127
▁barely	-10.2129
nes	-10.2137
emp	-10.2138
▁increasingly	-10.2143
▁definition	-10.2144
▁Congress	-10.2144
▁Australia	-10.2144
▁partnership	-10.2145
▁politics	-10.215
▁Florida	-10.2152
▁Add	-10.2163
▁creation	-10.2168
▁plaintiff	-10.2169
▁adjusted	-10.2183
▁assessment	-10.2184
▁greatest	-10.2184
▁industrial	-10.2187
▁cop	-10.2192
▁environmental	-10.2196
lay	-10.2199
pon	-10.2207
▁algorithm	-10.2207
▁breakfast	-10.2209
▁diagnosis	-10.2209
▁entry	-10.2225
Like	-10.2226
▁loose	-10.2228
▁lean	-10.2229
▁Look	-10.2231
▁George	-10.2232
▁Center	-10.2232
▁upper	-10.2235
▁motor	-10.2238
▁frequently	-10.2239
▁agents	-10.2246
▁approximately	-10.2247
▁Monday	-10.2248
De	-10.2252
▁neuro	-10.2256
nder	-10.2259
▁stupid	-10.2262
▁younger	-10.2274
▁Western	-10.2275
▁Use	-10.2277
▁fly	-10.2278
▁passion	-10.2282
▁Church	-10.2285
▁j	-10.2287
▁nervous	-10.2288
len	-10.2291
▁Com	-10.2292
▁William	-10.2298
Ex	-10.23
▁mirror	-10.2307
lly	-10.2313
▁typical	-10.2316
▁sport	-10.2318
ied	-10.2318
▁generated	-10.2318
▁symbol	-10.2318
▁cheese	-10.2321
▁ski	-10.2322
▁yesterday	-10.2323
▁assess	-10.2332
▁Over	-10.2337
ular	-10.2354
bil	-10.2354
▁ease	-10.2357
▁contribution	-10.2361
▁Thanks	-10.2367
▁disorder	-10.2371
▁chosen	-10.2372
▁hide	-10.2377
▁fee	-10.2381
▁choices	-10.2382
▁village	-10.2387
▁fantastic	-10.2393
aries	-10.2394
▁accurate	-10.2395
Maybe	-10.2395
▁session	-10.2397
▁Ed	-10.2404
▁trigger	-10.2406
▁dogs	-10.241
▁causes	-10.241
▁fifth	-10.2412
▁throat	-10.2414
▁pla	-10.2417
▁fo	-10.2419
▁sides	-10.2421
▁revenues	-10.2425
▁den	-10.2431
▁extended	-10.2431
des	-10.2432
▁luck	-10.2433
▁painting	-10.2434
▁division	-10.2434
ising	-10.2436
▁waited	-10.2438
▁medicine	-10.244
ump	-10.2446
mic	-10.2446
▁resolution	-10.2446
ka	-10.2447
▁criminal	-10.2449
▁successfully	-10.245
▁provision	-10.245
▁materially	-10.245
▁output	-10.2457
▁extensive	-10.2458
▁fellow	-10.2458
▁capable	-10.2461
▁peer	-10.2462
▁savings	-10.2463
▁technologies	-10.2464
▁Green	-10.2466
▁skill	-10.2471
▁religion	-10.2474
▁nurse	-10.2474
tel	-10.2477
▁arrive	-10.2478
cept	-10.2479
▁Today	-10.2479
▁chi	-10.2483
▁album	-10.2484
▁compete	-10.2487
▁forth	-10.2497
▁Everyone	-10.25
▁ver	-10.2501
▁Peter	-10.2505
▁notes	-10.2508
Thus	-10.2531
▁str	-10.2531
gue	-10.2533
▁chose	-10.2534
▁fault	-10.2542
▁genetic	-10.2542
▁kiss	-10.2546
▁relax	-10.2549
▁locations	-10.2551
▁anger	-10.2553
▁dedicated	-10.2555
▁Lu	-10.2558
ttle	-10.2565
▁conservative	-10.2569
▁neighbor	-10.2572
▁scenario	-10.2572
▁Pat	-10.2575
▁stated	-10.2579
pri	-10.2579
▁complicated	-10.2581
▁engagement	-10.2583
▁domain	-10.2586
▁stars	-10.2593
▁volumes	-10.2595
fu	-10.2597
▁chat	-10.2601
▁hole	-10.2601
▁evaluate	-10.2601
▁bomb	-10.2602
rac	-10.2602
▁exception	-10.2603
▁approval	-10.2605
▁muscle	-10.2607
▁posted	-10.2608
▁somebody	-10.2614
▁identity	-10.2615
dding	-10.2616
▁comm	-10.2626
▁fields	-10.2627
▁Cr	-10.2629
▁mechanism	-10.2629
▁dozen	-10.2629
▁longterm	-10.2631
▁domestic	-10.2634
vol	-10.2647
▁library	-10.265
ale	-10.265
▁minimum	-10.265
▁brings	-10.2651
long	-10.2652
▁According	-10.2657
▁bridge	-10.2658
jo	-10.2661
▁demonstrated	-10.267
▁lawyer	-10.2672
▁shake	-10.2673
▁lucky	-10.2677
▁highlight	-10.2683
▁premium	-10.2687
▁suspect	-10.2688
▁conducted	-10.2688
▁retain	-10.2695
▁drawing	-10.2696
▁cultural	-10.2697
▁origin	-10.2698
▁Art	-10.27
phy	-10.2701
▁officer	-10.2703
▁stomach	-10.2704
zz	-10.2707
▁frequency	-10.2707
▁famous	-10.2709
▁succeed	-10.2718
▁pure	-10.272
▁define	-10.2722
▁dimension	-10.2728
▁Does	-10.2729
▁owners	-10.274
▁liquid	-10.2743
According	-10.2745
cycl	-10.2751
▁objects	-10.2752
▁facts	-10.2755
▁agency	-10.2758
▁variation	-10.2759
cer	-10.2761
▁doors	-10.2761
▁officers	-10.2762
▁reform	-10.2769
▁charges	-10.2772
▁outcomes	-10.2774
▁facing	-10.2783
▁replace	-10.2796
▁nobody	-10.2801
▁column	-10.2806
▁practices	-10.2813
gra	-10.2818
▁intervention	-10.2818
▁dust	-10.2823
▁formal	-10.2827
▁drivers	-10.2827
gar	-10.2834
▁explanation	-10.2838
▁cheek	-10.284
▁north	-10.2841
struct	-10.2843
▁danger	-10.2846
▁expert	-10.2848
▁i	-10.2849
▁represents	-10.2855
▁confirmed	-10.286
▁Bill	-10.286
▁bother	-10.2868
▁south	-10.2868
nic	-10.287
▁height	-10.287
▁serving	-10.2875
▁cry	-10.2876
▁hyper	-10.2877
▁objective	-10.2878
▁wire	-10.288
▁Mary	-10.2882
▁minor	-10.2884
▁recover	-10.2886
lia	-10.2888
▁resistance	-10.2895
▁existence	-10.2898
▁hardly	-10.2903
ugh	-10.2913
ons	-10.2915
▁guests	-10.292
▁meal	-10.292
ray	-10.292
▁plays	-10.293
wood	-10.2933
▁ramp	-10.2936
▁MM	-10.2938
▁witness	-10.2941
▁acquisitions	-10.2941
▁readers	-10.2943
▁lights	-10.2943
▁collected	-10.2945
▁depth	-10.2947
▁officials	-10.2951
pers	-10.2954
▁Gi	-10.2954
▁thread	-10.2955
▁spiritual	-10.2958
▁cho	-10.296
▁crew	-10.2964
▁crash	-10.2965
▁mad	-10.2969
▁Un	-10.2969
itive	-10.2974
▁cake	-10.2977
mar	-10.298
▁award	-10.2981
osis	-10.2985
▁Sal	-10.2985
▁cluster	-10.2986
duct	-10.2987
▁tie	-10.299
▁implementation	-10.2995
▁Mark	-10.2996
ov	-10.3
▁dealing	-10.3001
▁poll	-10.3001
▁contracts	-10.3004
▁pleasure	-10.3005
▁experts	-10.3007
▁discount	-10.301
▁quote	-10.3011
▁landscape	-10.3018
▁colon	-10.3018
ock	-10.3022
▁delivering	-10.3024
▁wondered	-10.3027
▁steel	-10.303
ez	-10.3033
▁Commission	-10.3047
▁butter	-10.3049
▁communicate	-10.3049
▁strain	-10.3054
▁breast	-10.3055
▁awesome	-10.3056
▁yellow	-10.3056
▁crisis	-10.3057
▁tip	-10.3067
▁attitude	-10.3068
ella	-10.3073
▁suffer	-10.3077
▁et	-10.3082
▁confirm	-10.3085
▁links	-10.3091
old	-10.3098
▁automatically	-10.31
▁documents	-10.31
▁uses	-10.3103
▁blend	-10.3111
▁squ	-10.3115
▁false	-10.3116
▁lung	-10.312
▁attend	-10.3123
▁incredible	-10.3123
▁expertise	-10.3131
▁approved	-10.314
hood	-10.3141
▁strongly	-10.3146
▁joke	-10.3147
▁shower	-10.3148
▁categories	-10.3148
▁disc	-10.3151
rg	-10.3153
▁Frank	-10.3161
▁Ni	-10.3163
▁draft	-10.3164
▁shoulders	-10.3164
▁supplement	-10.3166
▁evil	-10.3168
mal	-10.3176
▁Reg	-10.3178
▁lovely	-10.3179
▁port	-10.3179
▁deeply	-10.3181
▁visitors	-10.3184
▁purposes	-10.3187
ches	-10.3194
▁unknown	-10.3199
▁tips	-10.32
▁sets	-10.3203
▁Je	-10.3208
▁Bank	-10.3215
sp	-10.322
▁channels	-10.3224
▁deeper	-10.3224
aving	-10.3226
▁summary	-10.3228
▁rev	-10.3229
ev	-10.3231
▁literature	-10.3231
ya	-10.3232
▁tonight	-10.3235
▁pi	-10.3238
▁General	-10.324
▁plot	-10.3242
▁rank	-10.3243
▁Nothing	-10.3245
▁flexibility	-10.3248
▁scheme	-10.3254
▁formed	-10.3254
▁pursue	-10.3254
▁suffering	-10.3259
▁n	-10.3261
▁laid	-10.3268
▁raw	-10.3269
▁Dan	-10.3273
▁sensor	-10.3276
ivity	-10.3289
▁Apple	-10.3295
▁authority	-10.3296
▁Last	-10.3297
▁Min	-10.3302
▁Bi	-10.3303
▁obligation	-10.3305
▁weird	-10.3308
▁checked	-10.3311
▁personally	-10.3312
▁mixed	-10.3315
▁lying	-10.3316
▁gear	-10.3318
▁shooting	-10.3319
▁uncertainties	-10.332
▁commission	-10.3325
▁cooking	-10.3325
▁god	-10.334
▁forest	-10.3344
▁exit	-10.3345
▁Ter	-10.3346
▁grip	-10.3348
▁Again	-10.3349
▁wh	-10.3356
▁regulatory	-10.3358
▁maximum	-10.336
▁angle	-10.3363
▁coast	-10.3366
▁curious	-10.337
▁drinking	-10.337
▁ingredients	-10.3373
▁normally	-10.3382
▁zone	-10.3389
▁complain	-10.3394
▁taxes	-10.3394
▁ordered	-10.3394
mat	-10.3394
▁investing	-10.3395
▁suppose	-10.3396
▁Cla	-10.3412
▁Japanese	-10.3416
▁menu	-10.3418
▁seeking	-10.3421
▁currency	-10.3424
▁forecast	-10.3425
▁exceed	-10.3428
atic	-10.343
▁publish	-10.343
ib	-10.3431
ked	-10.3436
Instead	-10.3439
▁Cal	-10.3444
▁reliable	-10.345
Every	-10.3455
▁integrated	-10.3457
rant	-10.346
▁chip	-10.3461
bal	-10.3473
▁writer	-10.3474
▁Mr	-10.3477
gy	-10.348
Go	-10.3492
▁remarks	-10.3498
▁formation	-10.3498
box	-10.3498
▁executive	-10.3498
▁sauce	-10.35
ily	-10.3505
▁grabbed	-10.3505
lie	-10.3507
▁Would	-10.351
▁Muslim	-10.351
▁positions	-10.3512
▁robust	-10.3513
▁volunteer	-10.3517
▁civil	-10.3518
nda	-10.3518
rous	-10.3522
▁humans	-10.3524
▁execute	-10.3524
▁convert	-10.3525
▁Asia	-10.3527
▁bunch	-10.3529
▁alter	-10.3533
▁decade	-10.3533
▁suggests	-10.3533
▁boost	-10.3533
Co	-10.3537
▁slip	-10.354
▁tells	-10.3541
▁Right	-10.3542
▁organizations	-10.3544
▁permanent	-10.3546
▁homes	-10.3552
▁Keep	-10.3554
▁attorney	-10.3554
▁finance	-10.3558
▁classic	-10.356
▁bath	-10.3565
▁wake	-10.357
▁hip	-10.3571
▁equity	-10.3573
▁ill	-10.3576
▁mono	-10.3577
lit	-10.3579
▁poly	-10.3579
▁rush	-10.358
▁unusual	-10.3582
▁rapidly	-10.3596
▁Mike	-10.3599
▁epi	-10.36
▁attract	-10.3605
▁decor	-10.3609
▁tank	-10.361
▁nearby	-10.3611
▁aspect	-10.362
▁electric	-10.3622
▁falling	-10.3627
▁apparently	-10.3628
▁grass	-10.3628
▁neighborhood	-10.3629
▁trained	-10.3634
▁strip	-10.3635
▁priority	-10.3636
▁anticipate	-10.3645
▁encouraged	-10.3649
state	-10.365
▁Mor	-10.3652
▁characteristics	-10.3654
▁upgrade	-10.3654
▁complaint	-10.3658
▁prayer	-10.366
▁leaned	-10.3664
▁cleaning	-10.3667
▁Star	-10.3667
▁launched	-10.3676
▁tap	-10.3677
▁teachers	-10.3677
▁Big	-10.368
▁flag	-10.368
▁productivity	-10.3681
▁reducing	-10.3686
▁Ken	-10.3689
rup	-10.3691
otic	-10.3698
▁plain	-10.3701
▁extract	-10.371
▁passing	-10.3712
▁hill	-10.3714
▁lies	-10.3719
gr	-10.3726
▁justice	-10.373
▁aid	-10.3734
▁sum	-10.3735
▁rolled	-10.3737
▁recommended	-10.3738
cl	-10.3739
▁introduce	-10.3742
▁exc	-10.3742
▁lit	-10.3743
vin	-10.3745
▁regularly	-10.3745
▁celebrate	-10.3746
▁proposal	-10.3746
▁array	-10.3748
▁Hi	-10.375
▁mood	-10.376
een	-10.3764
▁supporting	-10.3767
▁tradition	-10.3771
▁index	-10.3772
▁transform	-10.3774
▁saved	-10.3776
▁hidden	-10.3779
▁attribute	-10.3789
▁targets	-10.3791
▁medication	-10.3792
pha	-10.3798
▁dev	-10.38
▁Mer	-10.38
▁memories	-10.3801
▁evaluation	-10.3802
▁Rob	-10.3808
▁exp	-10.3814
▁pump	-10.3814
▁slight	-10.3818
▁adults	-10.3825
erson	-10.3827
▁compound	-10.3827
▁shit	-10.3828
hen	-10.3829
▁warrant	-10.3833
▁adjustment	-10.384
lies	-10.3861
▁circuit	-10.3862
▁dish	-10.3869
▁articles	-10.3875
lock	-10.3876
▁chocolate	-10.3878
turn	-10.3878
▁latter	-10.388
▁eliminate	-10.388
▁posts	-10.3885
▁sensitive	-10.3887
▁scientific	-10.389
▁chapter	-10.3891
▁virus	-10.3891
▁engage	-10.3891
are	-10.3896
bit	-10.3901
net	-10.3907
▁physician	-10.391
cap	-10.3918
▁merely	-10.3918
▁wound	-10.3919
▁fu	-10.3921
▁examples	-10.3923
▁wrap	-10.3923
▁segments	-10.3924
bl	-10.3926
▁CD	-10.3929
▁banks	-10.3934
▁nuclear	-10.3934
▁movies	-10.3937
▁deck	-10.3938
▁Health	-10.3938
lect	-10.3941
▁ju	-10.3946
▁dose	-10.3949
gging	-10.3951
▁positioned	-10.3963
not	-10.3965
▁Te	-10.3969
▁destroy	-10.3977
▁wing	-10.3984
▁variable	-10.3984
▁Unfortunately	-10.3986
▁representative	-10.3988
▁intra	-10.3989
▁genes	-10.3991
ook	-10.3993
▁dividend	-10.3994
▁Mexico	-10.3995
▁listed	-10.3999
tz	-10.3999
dent	-10.4
▁survive	-10.4006
▁br	-10.4008
▁scan	-10.4008
▁refused	-10.4008
▁emergency	-10.4011
▁hat	-10.4015
▁parking	-10.4019
▁acknowledge	-10.4022
▁silver	-10.4022
itch	-10.4023
▁Everything	-10.4027
ddle	-10.4027
flow	-10.4029
▁estimate	-10.4029
▁syn	-10.4031
▁rely	-10.4034
▁Win	-10.4038
▁enterprise	-10.4038
▁graduate	-10.4046
▁payments	-10.4048
ica	-10.4049
rb	-10.4051
▁Alex	-10.4052
▁y	-10.4054
▁touched	-10.4055
▁uniform	-10.4063
▁decent	-10.4069
vic	-10.408
▁Part	-10.4093
▁noted	-10.4098
▁disagree	-10.41
▁importantly	-10.41
▁framework	-10.4101
▁resource	-10.4103
▁outdoor	-10.4105
van	-10.4105
▁beer	-10.411
▁follows	-10.4111
▁participate	-10.4111
▁Roman	-10.4111
▁intend	-10.412
▁intense	-10.4122
while	-10.4125
vy	-10.4128
▁exhibit	-10.4135
ino	-10.4136
▁defeat	-10.4137
▁tone	-10.4141
tract	-10.4141
▁Robert	-10.4151
▁songs	-10.4155
▁loans	-10.4156
stand	-10.4157
▁experiments	-10.4162
▁updated	-10.4163
bel	-10.4165
▁incredibly	-10.4167
▁awareness	-10.4167
▁River	-10.4168
▁Sch	-10.417
▁interests	-10.4171
▁Super	-10.4172
▁reverse	-10.4176
chan	-10.4176
▁centre	-10.4184
▁situations	-10.4185
▁examination	-10.4187
▁enemy	-10.4188
▁Canadian	-10.4193
▁artist	-10.4198
▁begins	-10.4202
▁Union	-10.4203
▁flowers	-10.4213
▁suck	-10.4214
ography	-10.4215
▁examine	-10.4215
▁receiving	-10.4215
▁mask	-10.4219
▁furniture	-10.4221
▁anybody	-10.4228
▁loop	-10.4231
▁charged	-10.4232
▁limitations	-10.4233
▁engaged	-10.4235
▁reporting	-10.4237
▁superior	-10.4237
graph	-10.424
▁expecting	-10.4247
cle	-10.4247
eth	-10.4253
▁Bay	-10.4257
▁correlation	-10.4259
▁interaction	-10.4262
▁permit	-10.4262
stone	-10.4265
▁belief	-10.4273
▁messages	-10.4276
▁steady	-10.4277
▁Life	-10.4277
▁Ph	-10.4278
ong	-10.4279
▁cent	-10.428
▁duty	-10.4282
▁mal	-10.4283
▁newspaper	-10.4284
▁crucial	-10.4284
xi	-10.4285
▁conversion	-10.4285
▁housing	-10.4291
▁ga	-10.4294
▁vital	-10.4295
▁drawn	-10.4298
▁remote	-10.431
bri	-10.4311
▁killing	-10.4321
fl	-10.4324
equ	-10.4327
▁immediate	-10.4327
Can	-10.433
▁inform	-10.4337
▁EU	-10.4339
▁tremendous	-10.4342
▁vehicles	-10.4345
pen	-10.435
ional	-10.4352
▁essentially	-10.4354
▁candidate	-10.4354
▁stands	-10.4358
▁lease	-10.4359
▁mechanisms	-10.436
▁streets	-10.4362
▁trading	-10.4362
list	-10.4366
▁exists	-10.4369
▁literally	-10.4373
▁rising	-10.4374
▁saving	-10.4379
▁pur	-10.4379
▁Du	-10.4382
▁intelligence	-10.4383
▁Sun	-10.4385
OS	-10.4387
▁era	-10.4387
▁warning	-10.439
Each	-10.4392
▁remembered	-10.4393
▁academic	-10.4395
▁creature	-10.4397
ote	-10.44
path	-10.4402
ith	-10.4405
bin	-10.4411
▁contained	-10.4415
pir	-10.4421
▁Hol	-10.4422
▁implement	-10.4422
▁Inter	-10.4426
▁absolute	-10.443
▁Tuesday	-10.4433
▁manufacturer	-10.4434
▁scared	-10.4439
▁pilot	-10.4441
▁damn	-10.4443
▁proportion	-10.4446
▁ref	-10.4447
▁delicious	-10.4448
ball	-10.4455
▁bias	-10.4457
▁emotions	-10.446
▁drain	-10.4462
▁Home	-10.4463
▁league	-10.4463
▁prompt	-10.4464
▁employee	-10.4465
▁visible	-10.4467
▁rear	-10.4468
▁Up	-10.4474
ville	-10.4474
Ca	-10.4486
▁rarely	-10.449
▁bull	-10.4493
▁extreme	-10.4495
▁fulfill	-10.4497
▁performing	-10.4501
▁studio	-10.4501
▁videos	-10.4501
▁naturally	-10.4501
▁bug	-10.4501
▁burden	-10.4502
ware	-10.4506
▁pal	-10.4511
▁impacted	-10.4511
▁structures	-10.4513
▁ignore	-10.4514
▁knee	-10.4517
▁Though	-10.4519
▁inner	-10.4519
▁recognition	-10.4521
▁League	-10.4523
▁Yeah	-10.4529
▁cutting	-10.4531
▁critic	-10.4532
▁authors	-10.4536
▁Twitter	-10.4539
▁figures	-10.454
▁informed	-10.454
▁ancient	-10.4541
▁grab	-10.4542
▁comprehensive	-10.4545
▁anxiety	-10.4546
▁regional	-10.4547
▁Bro	-10.4551
▁variables	-10.4552
▁managing	-10.4561
▁residents	-10.4563
▁Board	-10.4564
▁Bea	-10.4566
▁whenever	-10.4574
▁approaches	-10.4577
▁carrying	-10.4578
▁tra	-10.4581
▁filing	-10.4586
▁extension	-10.4592
▁subjects	-10.4595
▁node	-10.4596
▁suitable	-10.4599
▁adventure	-10.4606
▁losses	-10.4611
▁Under	-10.4611
▁Very	-10.4614
▁headed	-10.4614
shed	-10.4614
▁hook	-10.4615
▁gentle	-10.4623
▁Work	-10.4623
bble	-10.4626
▁upset	-10.4626
▁rum	-10.4629
▁ri	-10.4642
▁controlled	-10.4644
▁knock	-10.4649
▁struck	-10.4658
▁lap	-10.4661
▁equation	-10.4661
▁replaced	-10.4662
▁expanding	-10.4666
▁attacks	-10.4671
▁universe	-10.4672
don	-10.4676
▁anticipated	-10.4677
▁ban	-10.4683
▁initially	-10.4685
▁proteins	-10.4685
igh	-10.4685
head	-10.469
▁Read	-10.4694
▁joining	-10.4694
▁flood	-10.4694
▁hero	-10.4694
▁wage	-10.4695
▁scar	-10.4697
▁Shi	-10.4698
▁rooms	-10.4698
chi	-10.4703
▁causing	-10.4715
▁seconds	-10.4717
tail	-10.4717
gress	-10.4718
▁kinds	-10.4719
▁stack	-10.472
onic	-10.4721
▁privacy	-10.4723
bra	-10.4725
▁Web	-10.473
▁Group	-10.4736
▁weapons	-10.4738
▁tag	-10.4743
▁detect	-10.4746
▁buildings	-10.4746
▁survival	-10.4748
▁Plan	-10.4752
▁spell	-10.4753
▁threw	-10.4754
▁Ke	-10.4767
▁kit	-10.4779
▁letting	-10.478
ese	-10.4784
▁settings	-10.4784
▁discipline	-10.4785
▁networks	-10.4785
▁sustainable	-10.4786
itis	-10.479
▁clinic	-10.4794
lig	-10.4796
▁holds	-10.4797
▁acquired	-10.4797
▁Ab	-10.48
▁tape	-10.4801
▁paused	-10.4802
▁stability	-10.4807
▁exposed	-10.4811
▁searching	-10.4822
▁rating	-10.4823
▁reviews	-10.4825
▁Lake	-10.4826
▁mixture	-10.4828
▁cookies	-10.4828
▁guilty	-10.4833
▁inhibit	-10.4834
▁installed	-10.4842
Any	-10.4849
▁letters	-10.4851
▁interact	-10.4851
▁rational	-10.4854
▁cor	-10.4855
▁Republican	-10.4858
▁wealth	-10.4861
▁chronic	-10.4869
▁MS	-10.4876
▁fluid	-10.4878
▁breaking	-10.4887
▁African	-10.4889
▁soil	-10.4897
▁l	-10.4899
▁Brazil	-10.4904
lea	-10.4905
▁hire	-10.4907
▁involve	-10.4911
▁focusing	-10.4913
▁dreams	-10.4916
▁Va	-10.4921
ough	-10.4926
▁default	-10.4927
▁stain	-10.4928
▁procedures	-10.4936
▁Love	-10.4943
▁grant	-10.4945
ulated	-10.4945
▁Tu	-10.4946
▁assistance	-10.4946
▁heavily	-10.4946
▁millions	-10.4952
▁Em	-10.4958
▁experimental	-10.4959
▁density	-10.4963
▁favorable	-10.4964
▁bow	-10.4971
▁atmosphere	-10.4973
▁conventional	-10.4974
Okay	-10.4975
▁assumptions	-10.4984
▁id	-10.4986
ili	-10.4988
▁attached	-10.4989
▁candidates	-10.499
▁illegal	-10.499
▁AM	-10.4992
▁distinct	-10.4993
▁interpret	-10.4996
▁discussions	-10.4997
▁arch	-10.4998
▁beneath	-10.4999
▁Next	-10.5002
▁locked	-10.5006
▁swing	-10.5006
▁native	-10.5006
▁Wednesday	-10.5011
▁absorb	-10.5011
▁moon	-10.5013
oe	-10.5014
▁breathing	-10.5015
▁clock	-10.502
▁instructions	-10.5021
▁u	-10.5026
▁faced	-10.5031
▁franchise	-10.5033
▁revolution	-10.5033
▁mon	-10.5034
▁mortgage	-10.5037
▁birthday	-10.5043
▁Tru	-10.5045
sure	-10.5046
pre	-10.5047
▁consequences	-10.5051
▁confused	-10.5058
▁Come	-10.5066
▁preparation	-10.5069
▁Smith	-10.5073
▁hum	-10.5075
▁statistical	-10.508
▁recording	-10.5089
▁boss	-10.509
▁pushing	-10.5091
▁Despite	-10.5095
play	-10.5097
▁aggressive	-10.5099
▁linear	-10.5101
▁issued	-10.5105
▁AC	-10.5106
uous	-10.511
zy	-10.511
▁pathway	-10.5112
▁Island	-10.5125
▁register	-10.5127
▁everyday	-10.513
▁proven	-10.5133
▁reader	-10.5139
▁widely	-10.5144
▁Britain	-10.5145
▁investigate	-10.5147
▁magazine	-10.5152
▁van	-10.5154
▁soldiers	-10.5155
▁scratch	-10.5155
▁moves	-10.5158
▁Op	-10.5159
▁reputation	-10.5161
ria	-10.5163
pher	-10.5163
▁impressive	-10.5164
py	-10.5165
fall	-10.5166
▁marketplace	-10.5168
▁minimal	-10.5168
▁Bible	-10.5168
▁linked	-10.5171
▁sink	-10.5171
▁Chicago	-10.5176
▁consult	-10.5184
▁container	-10.5187
▁restaurants	-10.5189
wo	-10.519
▁import	-10.5192
▁responses	-10.5194
▁regardless	-10.5197
▁pad	-10.5198
▁resulted	-10.52
▁Such	-10.5203
▁differently	-10.5204
▁Dad	-10.5207
▁acting	-10.5209
▁eggs	-10.5211
▁university	-10.5212
▁secondary	-10.5214
ching	-10.5217
▁rough	-10.5217
Both	-10.5218
▁assumed	-10.522
pper	-10.5226
▁dec	-10.5227
oke	-10.5229
▁lifted	-10.5235
▁gonna	-10.5236
▁recruit	-10.5238
▁Bri	-10.5239
▁reflected	-10.5241
▁Clinton	-10.5242
▁possess	-10.5248
▁etc	-10.5249
▁arrangement	-10.5251
▁organized	-10.5252
▁profitable	-10.5252
▁union	-10.5261
▁intent	-10.5263
▁mat	-10.5277
▁jury	-10.5282
met	-10.5282
▁Something	-10.5285
▁absence	-10.5286
▁destination	-10.5287
▁embrace	-10.5295
▁employer	-10.53
▁consistently	-10.5306
where	-10.531
▁appointment	-10.5312
▁combine	-10.5314
▁tasks	-10.5319
mination	-10.5324
die	-10.5326
▁examined	-10.5328
▁carrier	-10.533
▁borrow	-10.5342
▁shipping	-10.5343
cra	-10.5344
▁provider	-10.5344
▁competitors	-10.5346
▁transactions	-10.5347
▁resist	-10.5349
dia	-10.5351
▁army	-10.5352
▁Bob	-10.5364
▁knees	-10.5367
▁leak	-10.5368
▁PM	-10.5368
▁flying	-10.5369
▁grateful	-10.5371
▁targeted	-10.5371
▁op	-10.5374
▁incremental	-10.5375
rated	-10.5379
▁opt	-10.5381
arch	-10.5387
▁melt	-10.5387
ancy	-10.5388
▁limits	-10.5389
▁gender	-10.539
▁staying	-10.539
▁giant	-10.5393
meter	-10.5394
ux	-10.5407
▁sleeping	-10.5407
▁formula	-10.5408
▁trace	-10.5409
▁replacement	-10.5412
▁consent	-10.5423
put	-10.5423
▁submit	-10.5425
▁darkness	-10.5429
▁settled	-10.5431
▁airport	-10.5432
Second	-10.5432
▁valid	-10.5432
▁Him	-10.5434
▁maintaining	-10.5434
▁sounded	-10.5444
Se	-10.5446
▁expanded	-10.5447
▁victim	-10.5448
▁Jewish	-10.545
rating	-10.5456
▁hanging	-10.5457
▁citizens	-10.5459
▁cable	-10.5459
▁visiting	-10.5464
▁Dar	-10.5465
▁slid	-10.5467
▁Thursday	-10.5469
▁Sta	-10.5475
▁Adam	-10.5479
▁Council	-10.548
▁occurs	-10.549
▁encounter	-10.549
▁outstanding	-10.5493
position	-10.5501
▁criteria	-10.5502
▁protocol	-10.5507
▁inspired	-10.5511
▁immune	-10.5512
▁boil	-10.5515
▁commit	-10.5516
▁denied	-10.5517
ene	-10.5518
▁youth	-10.5519
▁stroke	-10.552
▁indication	-10.5527
▁impression	-10.5529
▁diseases	-10.5535
▁depression	-10.5536
▁Paris	-10.554
▁fri	-10.5543
▁platforms	-10.5545
▁excuse	-10.5545
▁instant	-10.555
▁vessel	-10.5552
▁sal	-10.5558
table	-10.5564
▁Brown	-10.5564
▁Four	-10.5566
▁rapid	-10.5567
▁Trans	-10.5567
▁fleet	-10.5568
▁principle	-10.557
▁loving	-10.5572
▁vertical	-10.5578
lish	-10.5581
range	-10.5584
▁crystal	-10.5596
▁dynamics	-10.5596
▁Iraq	-10.5601
▁exceptional	-10.5605
▁browser	-10.5608
▁graphic	-10.561
▁guest	-10.5616
▁authorities	-10.5618
▁partially	-10.5623
▁implemented	-10.5626
▁Service	-10.5627
▁doctors	-10.5635
▁Dis	-10.5639
More	-10.5641
▁lifestyle	-10.5642
▁Grand	-10.5642
▁sudden	-10.5643
▁desired	-10.5643
▁battery	-10.5645
▁originally	-10.5652
▁burst	-10.5655
▁suffered	-10.5656
▁engineering	-10.5657
▁supplier	-10.5661
▁optimize	-10.5661
▁Without	-10.5663
▁Government	-10.5666
Other	-10.5675
▁completion	-10.5679
like	-10.5679
▁sending	-10.568
▁Could	-10.5681
▁dear	-10.5682
hor	-10.5687
rov	-10.5687
▁mount	-10.5688
▁settle	-10.5689
▁wash	-10.569
▁dealer	-10.5691
▁engineer	-10.5692
▁sixth	-10.5693
▁staring	-10.5693
▁dependent	-10.5694
own	-10.5695
aging	-10.5696
ett	-10.57
▁knife	-10.5708
▁hunt	-10.5712
Another	-10.5714
▁ID	-10.5714
▁diverse	-10.5714
▁household	-10.5715
▁owned	-10.5721
ologist	-10.5722
new	-10.5723
▁interpretation	-10.5727
▁equally	-10.5728
▁scrap	-10.573
▁emerge	-10.5741
▁wise	-10.5742
▁moderate	-10.5745
▁disappear	-10.5748
▁passenger	-10.5748
▁drew	-10.575
▁preferred	-10.575
▁inflation	-10.5756
▁installation	-10.5765
▁ocean	-10.5765
▁patch	-10.5765
▁calculation	-10.5767
▁Play	-10.5768
▁juice	-10.577
▁lady	-10.5773
▁figured	-10.5774
▁spark	-10.5776
▁cheer	-10.5776
▁pit	-10.578
▁div	-10.5787
▁pepper	-10.5789
▁Sea	-10.5797
▁consumption	-10.5798
▁pretend	-10.5799
▁Amazon	-10.5801
▁shade	-10.5804
▁alarm	-10.5805
▁granted	-10.5805
uction	-10.5806
▁professionals	-10.5807
▁committee	-10.5808
▁supplies	-10.5809
wise	-10.5811
iff	-10.5813
Despite	-10.5815
▁essay	-10.5817
▁weakness	-10.5823
▁corresponding	-10.5826
▁reflects	-10.5827
▁Sure	-10.5829
▁speaker	-10.583
▁excess	-10.583
PS	-10.5831
▁stairs	-10.5833
▁Party	-10.5835
▁Steve	-10.5835
iz	-10.5836
▁ruin	-10.5838
▁painful	-10.5843
▁Italian	-10.5843
▁interface	-10.5845
▁Richard	-10.5847
▁rental	-10.5848
▁casual	-10.5849
▁Ge	-10.5851
▁subsequent	-10.5855
▁providers	-10.5856
▁estimated	-10.5866
▁hardware	-10.5868
▁marked	-10.587
▁Catholic	-10.587
▁institutions	-10.5873
▁injuries	-10.5874
▁sought	-10.5877
▁papers	-10.5879
▁plea	-10.588
▁Cu	-10.5883
▁childhood	-10.5884
▁king	-10.5887
▁International	-10.5888
▁programme	-10.5888
▁answered	-10.5891
▁jo	-10.5891
▁hung	-10.5895
▁clo	-10.5895
char	-10.5902
▁innovative	-10.5905
▁Jim	-10.5906
oon	-10.5907
Today	-10.5909
▁mill	-10.591
ital	-10.5917
▁accuracy	-10.5921
▁Middle	-10.5927
umb	-10.5928
▁nerve	-10.5945
▁branch	-10.5947
▁stages	-10.5961
ore	-10.5968
▁tear	-10.5972
gle	-10.5974
▁pink	-10.5975
▁ears	-10.5976
▁fiber	-10.5978
▁panic	-10.5979
▁modest	-10.598
▁relation	-10.5983
▁updates	-10.5986
fil	-10.5996
▁bird	-10.5996
▁enhanced	-10.5997
gene	-10.5998
▁pulling	-10.6
▁compensation	-10.6001
▁regret	-10.6003
▁capability	-10.6006
▁lens	-10.6006
▁wore	-10.6008
▁bat	-10.6009
▁Whether	-10.6014
▁comparable	-10.6014
▁snap	-10.6016
▁ir	-10.6024
pot	-10.6029
▁bake	-10.603
▁Old	-10.6033
▁inspiration	-10.6039
▁CS	-10.604
▁gently	-10.6041
▁Democrats	-10.6043
isation	-10.6047
▁principles	-10.6055
▁illness	-10.6057
IS	-10.6061
▁steal	-10.6061
▁seal	-10.6074
▁Windows	-10.6077
loc	-10.6078
▁disturb	-10.6079
▁interior	-10.608
rick	-10.6083
▁charm	-10.6084
▁nail	-10.6087
▁winner	-10.6087
cut	-10.6094
▁vacation	-10.6099
place	-10.6101
▁pressed	-10.6121
Li	-10.6123
Their	-10.6125
▁introduction	-10.6129
▁shame	-10.613
▁Chris	-10.613
▁correctly	-10.6134
sha	-10.6136
▁collapse	-10.6147
PA	-10.6148
omic	-10.6148
▁Martin	-10.6149
▁satisfaction	-10.615
▁structural	-10.6151
▁decreased	-10.6152
vari	-10.6153
▁Pan	-10.6162
▁respectively	-10.6162
▁Hill	-10.6172
▁fewer	-10.6172
▁advise	-10.6175
▁grace	-10.6175
▁leather	-10.6175
▁representation	-10.6178
▁barrier	-10.6179
▁Moreover	-10.6179
▁pound	-10.6181
▁insert	-10.6185
▁satisfied	-10.6188
▁enormous	-10.6194
lash	-10.6195
▁convenient	-10.6204
▁satisfy	-10.6204
▁Jeff	-10.6208
nge	-10.6215
▁heading	-10.6217
fr	-10.6218
▁composition	-10.6218
▁export	-10.6232
▁protected	-10.6236
Pa	-10.6238
▁handed	-10.624
▁begun	-10.6241
▁visited	-10.6242
▁awful	-10.6243
ulate	-10.6243
▁scope	-10.6244
▁clothing	-10.6255
▁preference	-10.6257
▁chief	-10.6259
▁biological	-10.6263
▁arise	-10.6273
▁Ly	-10.6274
▁pu	-10.6276
Lo	-10.6278
▁transmission	-10.628
▁audio	-10.6281
water	-10.6281
▁grave	-10.6281
Com	-10.6283
▁yard	-10.6286
▁fold	-10.6291
▁dressed	-10.6296
ero	-10.6297
▁pride	-10.6299
icle	-10.6307
▁errors	-10.6312
▁artists	-10.6313
▁tied	-10.6315
▁restore	-10.6317
▁hoped	-10.6319
▁logic	-10.632
▁flexible	-10.6322
direct	-10.6323
▁prim	-10.6331
Those	-10.6332
▁overcome	-10.6332
cro	-10.6335
▁Harry	-10.6336
▁preserve	-10.6339
▁ordinary	-10.6341
▁accounting	-10.6347
▁returning	-10.6351
▁tune	-10.6354
iding	-10.6355
▁mild	-10.6356
▁sponsor	-10.6359
▁liver	-10.6359
▁Sw	-10.636
▁invited	-10.636
▁permission	-10.6363
Over	-10.6364
▁rang	-10.6367
▁maintained	-10.6368
elle	-10.637
▁adequate	-10.6371
▁Bra	-10.6371
▁consume	-10.6372
▁ray	-10.6373
▁blocks	-10.6375
ively	-10.6376
▁periods	-10.6377
▁scheduled	-10.6378
▁editor	-10.6379
▁authentic	-10.6381
nne	-10.6388
▁monthly	-10.6388
▁represented	-10.6388
▁lifetime	-10.6391
▁unexpected	-10.6391
▁involves	-10.6394
▁spectrum	-10.6396
▁prediction	-10.6398
▁jacket	-10.6404
▁announcement	-10.6407
▁forgotten	-10.641
▁Ko	-10.641
▁pleasant	-10.641
▁bid	-10.6411
▁tension	-10.6412
▁Pla	-10.6414
▁texture	-10.6418
▁Three	-10.6419
▁legacy	-10.6423
▁personality	-10.6428
▁mistakes	-10.6429
▁punch	-10.6439
▁victory	-10.6443
▁Matt	-10.6446
▁orange	-10.6448
▁pile	-10.6448
▁estimates	-10.6452
▁crossed	-10.6454
zo	-10.6456
▁participation	-10.6459
▁Wa	-10.6459
▁pie	-10.6463
▁designer	-10.6468
▁opposed	-10.6471
▁ni	-10.6475
▁sail	-10.648
▁sighed	-10.6482
▁Queen	-10.6491
▁lake	-10.6493
▁gray	-10.6494
▁fallen	-10.6494
hal	-10.6495
▁greatly	-10.6495
▁radical	-10.6497
▁module	-10.6499
▁tongue	-10.6502
▁Bur	-10.6502
Yet	-10.6505
▁carbon	-10.6506
▁clip	-10.651
▁Out	-10.6516
▁detection	-10.6522
▁edit	-10.6523
▁reaching	-10.6524
body	-10.6525
▁regulation	-10.653
▁destroyed	-10.6535
▁venture	-10.6537
▁evaluated	-10.654
▁icon	-10.6541
▁DC	-10.6542
▁OK	-10.6542
▁weapon	-10.6542
nate	-10.6544
▁detected	-10.6546
▁Ste	-10.6549
▁Furthermore	-10.655
▁actively	-10.6552
▁simulation	-10.6553
▁render	-10.6553
▁opponent	-10.6555
▁entertainment	-10.6564
▁ticket	-10.6565
hel	-10.6568
▁expectation	-10.6569
▁affordable	-10.6573
▁adopt	-10.6574
▁jumped	-10.6575
▁slice	-10.6579
▁Remember	-10.6579
▁rolling	-10.6582
▁College	-10.6583
▁agencies	-10.6585
▁happiness	-10.6587
▁accelerate	-10.6588
▁publication	-10.6592
▁investigated	-10.6593
▁chill	-10.6594
▁Miss	-10.6601
arian	-10.6602
▁seventh	-10.6608
▁crop	-10.661
▁tech	-10.6611
Z	-10.6611
▁screw	-10.6612
▁graph	-10.6616
▁Game	-10.6619
▁muscles	-10.662
▁convinced	-10.662
AC	-10.6621
▁purchased	-10.6621
▁Australian	-10.6621
▁tube	-10.6622
▁continuous	-10.6623
▁scores	-10.6626
▁signals	-10.6628
▁concrete	-10.6632
▁dining	-10.6632
ature	-10.6634
▁Rock	-10.6638
▁brilliant	-10.6641
▁Try	-10.6664
▁Gar	-10.6665
▁pipe	-10.6666
▁ought	-10.6668
▁meetings	-10.667
▁Thomas	-10.6673
Furthermore	-10.668
▁promotion	-10.6681
▁proved	-10.6682
▁fired	-10.6684
▁corn	-10.669
▁unlikely	-10.6694
▁Mom	-10.6705
▁invention	-10.6706
▁surgical	-10.6707
▁birds	-10.6709
cast	-10.6712
j	-10.6716
▁boxes	-10.6733
▁trials	-10.6734
▁calculated	-10.6734
▁violent	-10.6738
▁Chi	-10.6739
▁asleep	-10.6746
▁Luc	-10.6754
▁gains	-10.6759
Sometimes	-10.676
▁availability	-10.6761
▁construct	-10.6764
▁Los	-10.6764
▁weigh	-10.6765
▁employment	-10.6766
▁translate	-10.6767
ele	-10.6768
ache	-10.6773
▁observation	-10.6776
▁Er	-10.6779
▁architecture	-10.6786
▁choosing	-10.6789
▁claimed	-10.6789
▁producing	-10.6792
▁Bel	-10.6793
▁tin	-10.6804
▁monitoring	-10.6805
▁powder	-10.6805
▁Think	-10.6808
▁Ver	-10.681
ocyte	-10.6812
▁deny	-10.6812
you	-10.6816
▁contributed	-10.6818
▁healing	-10.6819
▁Slide	-10.682
wing	-10.6823
print	-10.6824
▁climb	-10.6825
▁audit	-10.6826
▁acquire	-10.6829
▁Mil	-10.683
▁CT	-10.683
▁crush	-10.683
claim	-10.6831
▁analyzed	-10.6831
▁elsewhere	-10.6832
▁Men	-10.6834
▁gut	-10.6834
▁lab	-10.6837
▁confront	-10.6839
▁bars	-10.6844
▁shell	-10.6845
▁Had	-10.6846
▁Law	-10.6854
cious	-10.6855
▁cancel	-10.6858
▁difficulty	-10.686
▁IP	-10.6861
berg	-10.6866
▁highlights	-10.6878
▁Scott	-10.6878
▁ceiling	-10.6879
▁Henry	-10.6885
Oh	-10.6886
▁uncertainty	-10.6887
▁rail	-10.6889
▁belt	-10.6889
▁duration	-10.6891
▁struggling	-10.6892
▁promised	-10.6896
▁molecular	-10.6897
▁awake	-10.6897
Ch	-10.69
▁crying	-10.6906
▁prime	-10.6909
▁producer	-10.691
▁alleged	-10.6911
▁west	-10.6913
▁parallel	-10.6914
▁fiction	-10.6916
▁Hall	-10.6918
cker	-10.6919
▁immuno	-10.692
▁molecule	-10.6921
Moreover	-10.6922
▁Central	-10.6924
emia	-10.6928
war	-10.6934
▁cigarette	-10.6937
▁suppress	-10.6944
cher	-10.6948
▁operator	-10.695
▁surely	-10.6953
▁temporary	-10.6955
▁egg	-10.6957
▁conversations	-10.6958
▁rip	-10.696
▁AD	-10.696
▁quit	-10.696
▁behaviour	-10.6961
▁accomplish	-10.6964
▁palm	-10.6971
▁urban	-10.6974
▁entrance	-10.6979
▁Tim	-10.6986
▁arrest	-10.6987
▁asterisk	-10.6989
▁interactions	-10.6989
▁Cup	-10.6993
▁lessons	-10.6996
Al	-10.6997
▁emerging	-10.6998
cate	-10.7
▁neutral	-10.7001
▁bump	-10.7003
ality	-10.7006
▁refuse	-10.7007
▁substance	-10.7007
RS	-10.7013
▁Wall	-10.7017
▁urge	-10.702
People	-10.7025
▁Open	-10.7036
▁Republicans	-10.7037
▁measurements	-10.7037
▁burning	-10.704
▁spec	-10.7041
▁ultimate	-10.7041
▁affair	-10.7042
▁waves	-10.7045
pic	-10.7047
▁solar	-10.7053
▁lesson	-10.7055
▁covers	-10.7056
▁unlike	-10.7056
▁till	-10.7057
▁smoking	-10.7064
▁stored	-10.7065
▁heaven	-10.7067
▁wrapped	-10.7067
▁Cho	-10.7067
Pro	-10.7069
▁Put	-10.7074
▁broader	-10.7076
▁emission	-10.7079
▁colleagues	-10.7079
▁Han	-10.7081
▁approached	-10.7088
▁cock	-10.7092
▁pig	-10.7093
▁directed	-10.7097
▁diversity	-10.7098
▁alert	-10.7103
▁Services	-10.7107
urg	-10.7112
CC	-10.7113
▁determination	-10.7113
▁addressed	-10.7113
qua	-10.7117
▁correspond	-10.7117
cade	-10.7117
view	-10.7118
▁filling	-10.7119
▁fought	-10.7128
Additionally	-10.7128
▁Free	-10.7133
▁glow	-10.7138
▁briefly	-10.7139
▁dying	-10.7143
Mar	-10.7144
▁repeated	-10.7156
verse	-10.7156
ifying	-10.7157
▁beam	-10.7157
▁Spanish	-10.7159
▁Char	-10.716
▁ya	-10.7164
▁agenda	-10.7165
▁distinguish	-10.7168
▁shots	-10.718
▁tire	-10.7184
▁Jen	-10.7184
▁machines	-10.7187
hand	-10.7189
▁gay	-10.719
▁assert	-10.719
ek	-10.719
▁optimal	-10.7192
▁shrugged	-10.7198
▁Post	-10.7206
▁opinions	-10.7208
▁Pu	-10.7208
▁magnetic	-10.7211
▁apple	-10.7211
▁apparent	-10.7216
▁coin	-10.7219
▁bonus	-10.7222
▁Find	-10.7222
▁disconnect	-10.7224
▁delete	-10.7226
▁Max	-10.723
▁tower	-10.723
Le	-10.7233
cha	-10.7241
▁CA	-10.7241
▁drunk	-10.7246
RNA	-10.7247
▁configuration	-10.7248
▁Office	-10.7249
▁consist	-10.725
▁whereas	-10.7251
▁toxic	-10.7261
ik	-10.7264
break	-10.7265
▁researchers	-10.7269
▁hack	-10.7269
rog	-10.7271
acy	-10.7272
▁settlement	-10.7273
▁AS	-10.7274
▁vendor	-10.7283
▁metrics	-10.7288
▁eighth	-10.729
▁intensity	-10.7291
▁hopefully	-10.7294
▁template	-10.7294
▁bulk	-10.7297
▁refresh	-10.7299
▁stranger	-10.73
▁broadcast	-10.73
▁pose	-10.7304
▁Plus	-10.7305
Unfortunately	-10.7306
▁si	-10.7308
▁contest	-10.7308
▁oh	-10.731
▁adopted	-10.733
▁stem	-10.7333
▁Italy	-10.7336
bro	-10.7337
▁gesture	-10.7341
▁Senate	-10.7341
ural	-10.7342
▁injured	-10.7345
▁ce	-10.7347
▁achievement	-10.7349
▁Company	-10.7351
Mo	-10.7351
▁disaster	-10.7356
▁Johnson	-10.736
▁victims	-10.7361
look	-10.7362
q	-10.7365
lum	-10.7369
▁regime	-10.7373
▁beliefs	-10.7383
▁tender	-10.7383
▁lip	-10.7385
▁passage	-10.7386
▁divorce	-10.7391
▁reminder	-10.7391
▁binding	-10.7391
▁Besides	-10.7395
▁writers	-10.7396
front	-10.7396
▁disappointed	-10.7396
▁initiative	-10.7396
▁minister	-10.7397
▁CO	-10.74
▁layers	-10.74
▁illustrate	-10.7402
▁Supreme	-10.7404
▁reflection	-10.7405
▁fur	-10.7407
▁Year	-10.7409
▁Through	-10.7409
away	-10.741
▁evident	-10.7413
▁checking	-10.7413
▁transportation	-10.7414
▁gar	-10.7416
ara	-10.7419
▁bite	-10.7422
▁concerning	-10.7424
▁principal	-10.7425
▁east	-10.7428
▁therapeutic	-10.743
▁bench	-10.7433
▁breathe	-10.7435
▁electrical	-10.7441
▁squeeze	-10.7441
▁tele	-10.7442
▁couch	-10.7443
lip	-10.7446
▁campus	-10.7446
▁rice	-10.7451
▁pregnant	-10.7457
▁physically	-10.7458
▁Latin	-10.7458
▁distract	-10.7458
▁specialist	-10.7463
▁listened	-10.7468
▁enjoying	-10.7469
▁observe	-10.747
▁rescue	-10.7473
▁ignored	-10.7474
Where	-10.7475
▁indicator	-10.7483
▁regulations	-10.7484
▁educational	-10.7492
▁Mag	-10.7494
▁Blue	-10.7499
Sa	-10.7501
what	-10.7508
▁calendar	-10.7509
▁defect	-10.7512
▁pause	-10.7515
▁conscious	-10.7522
stream	-10.7522
▁petition	-10.7524
▁philosophy	-10.7526
▁robot	-10.7528
▁refine	-10.7534
▁measurement	-10.7539
even	-10.754
▁Par	-10.754
▁offense	-10.754
▁resume	-10.7544
more	-10.7545
▁booking	-10.7546
▁guidelines	-10.7549
▁hypo	-10.7553
ush	-10.7553
▁universal	-10.7553
▁dating	-10.7553
▁sacrifice	-10.7554
RA	-10.756
▁Power	-10.756
▁grain	-10.7563
▁cow	-10.7563
mun	-10.7564
▁apps	-10.757
▁studying	-10.7573
▁wander	-10.7583
▁golf	-10.7584
pho	-10.7584
▁trauma	-10.7592
▁Stan	-10.7592
shop	-10.7595
pect	-10.7595
▁pale	-10.76
arrow	-10.76
ibility	-10.7601
gie	-10.7603
▁virtual	-10.7605
▁picking	-10.7607
▁perception	-10.7609
▁Should	-10.7612
▁liberal	-10.7614
▁dive	-10.7619
▁compromise	-10.7621
▁Back	-10.7622
▁pat	-10.7641
▁fool	-10.7644
▁complexity	-10.7644
▁twin	-10.7651
▁pun	-10.7653
▁desert	-10.7654
ula	-10.7665
ok	-10.7667
▁scientists	-10.7668
▁carpet	-10.7669
▁commonly	-10.7676
▁bags	-10.7679
▁demon	-10.7686
▁bitter	-10.7687
▁telephone	-10.7692
▁aircraft	-10.7697
▁encouraging	-10.7697
▁oven	-10.7709
▁trap	-10.771
▁Anyway	-10.7713
▁covering	-10.7715
▁acute	-10.7718
▁requirement	-10.7723
▁optimistic	-10.7727
▁Greek	-10.7737
▁Microsoft	-10.7738
▁excitement	-10.7739
▁gross	-10.7739
▁disappeared	-10.7746
▁twist	-10.7746
▁combat	-10.7748
▁wooden	-10.7753
▁Arab	-10.7758
▁journalist	-10.7758
▁elected	-10.7758
▁raising	-10.7769
▁Ref	-10.7775
▁gathered	-10.7775
▁Father	-10.7783
▁Asian	-10.7784
▁surrounded	-10.7785
▁hint	-10.7786
▁Never	-10.7786
inate	-10.7789
▁quantum	-10.7791
▁yell	-10.7794
▁usage	-10.7795
▁impressed	-10.7797
▁garage	-10.7798
▁adoption	-10.7808
ari	-10.7808
▁Daniel	-10.7811
▁bullet	-10.7813
icular	-10.7814
▁spoken	-10.7819
▁guitar	-10.7825
▁healthcare	-10.7826
▁intellectual	-10.783
▁Sur	-10.783
migrant	-10.7837
▁whisper	-10.7842
▁sensitivity	-10.7844
▁connections	-10.7847
▁Prince	-10.7849
hold	-10.7853
▁steam	-10.7853
AP	-10.7853
mus	-10.7858
▁Charles	-10.7858
▁programming	-10.7865
▁voters	-10.7869
poli	-10.7873
▁gained	-10.7876
▁laughing	-10.7876
▁Check	-10.7878
▁earned	-10.7885
▁topics	-10.7889
▁gym	-10.7892
upp	-10.7892
Two	-10.7894
▁managers	-10.7895
▁iPhone	-10.7909
▁admitted	-10.791
▁footprint	-10.7911
just	-10.7912
▁legislation	-10.7913
▁bur	-10.7914
▁min	-10.7919
▁occasionally	-10.7919
▁Rose	-10.7922
▁Turn	-10.7927
sses	-10.7929
▁Committee	-10.7931
▁analyze	-10.7931
Un	-10.7932
▁Jews	-10.7943
▁arguments	-10.7943
▁privilege	-10.7943
▁gal	-10.7943
▁restrict	-10.7944
▁courage	-10.7949
▁collective	-10.796
▁Boston	-10.7964
▁Cat	-10.7969
▁visibility	-10.7973
▁employed	-10.7975
▁subscribe	-10.7975
▁genuine	-10.7976
▁facilitate	-10.7983
▁tourist	-10.7991
▁offerings	-10.7993
town	-10.7993
pan	-10.7993
▁indicates	-10.8001
▁pour	-10.8002
lysis	-10.8003
▁info	-10.8004
▁isolated	-10.8005
▁nutrition	-10.8005
▁badly	-10.8005
bed	-10.8007
▁vitamin	-10.8007
▁mice	-10.8011
▁registered	-10.8013
▁sake	-10.8014
▁meals	-10.8015
Last	-10.8017
▁arrested	-10.8023
▁matches	-10.8024
eb	-10.8029
▁holes	-10.803
▁Val	-10.8031
▁financing	-10.804
▁priorities	-10.8044
band	-10.8045
▁mature	-10.805
▁puzzle	-10.8052
▁translation	-10.8052
▁tab	-10.8053
ena	-10.8057
▁removal	-10.806
▁leap	-10.8067
maker	-10.8069
▁dirt	-10.8071
▁Water	-10.8075
▁containing	-10.8077
▁resolve	-10.8077
Thanks	-10.8078
▁hated	-10.8079
▁accessible	-10.808
▁undertake	-10.8082
▁Too	-10.8083
▁demo	-10.8088
▁Having	-10.809
▁contributions	-10.8091
▁analyses	-10.8104
▁tournament	-10.8106
▁Iran	-10.8109
▁fuck	-10.8111
ending	-10.8112
▁journal	-10.8115
▁hungry	-10.8116
unk	-10.8118
▁ridiculous	-10.812
▁drag	-10.8125
▁Light	-10.8126
▁exam	-10.8127
▁assignment	-10.8131
▁Call	-10.8134
▁District	-10.8137
▁attempts	-10.8139
▁vegetables	-10.8139
Ne	-10.8146
▁negotiation	-10.815
▁entering	-10.8151
▁mile	-10.8152
▁registration	-10.8156
▁clue	-10.8157
dom	-10.816
nel	-10.8173
▁gifts	-10.8176
▁favourite	-10.818
▁ja	-10.8183
▁Market	-10.8184
▁Whatever	-10.8188
▁hydro	-10.8189
▁assault	-10.8192
▁motivation	-10.8196
rine	-10.8196
▁fraction	-10.8198
▁rig	-10.82
▁monster	-10.82
Me	-10.8201
▁utilize	-10.8202
▁blanket	-10.8207
ama	-10.8212
▁spare	-10.8214
▁dispute	-10.8215
▁upcoming	-10.8215
▁cute	-10.8216
inated	-10.8218
▁concluded	-10.822
▁referred	-10.8224
▁Virginia	-10.8225
▁drift	-10.8226
▁rot	-10.8227
▁EBITDA	-10.8227
▁receptor	-10.823
▁laptop	-10.8231
▁proposition	-10.8234
▁alongside	-10.8236
▁smiling	-10.8236
▁cried	-10.8239
▁Brad	-10.824
▁invite	-10.8241
▁honestly	-10.8246
Ha	-10.825
▁mechanical	-10.8253
▁caution	-10.8254
▁Jane	-10.8254
▁quarterly	-10.8256
▁fade	-10.826
▁comic	-10.8261
▁breed	-10.8264
izer	-10.8274
▁yards	-10.8279
▁flesh	-10.828
▁Ana	-10.8282
▁imaging	-10.8285
▁uncomfortable	-10.8285
▁jail	-10.8286
▁beneficial	-10.8288
▁considerable	-10.8289
▁gradually	-10.8291
▁blink	-10.8295
▁damaged	-10.8299
ison	-10.8299
▁attempted	-10.8306
▁reviewed	-10.8318
▁testimony	-10.8321
▁preparing	-10.8322
▁ending	-10.8322
▁spray	-10.8323
▁password	-10.8324
▁cave	-10.8329
▁interrupt	-10.833
▁relaxed	-10.8331
ola	-10.8335
▁threshold	-10.8336
▁underscore	-10.8337
▁prospects	-10.8342
▁utility	-10.8344
▁balanced	-10.8351
▁Ac	-10.8352
▁eager	-10.8353
plan	-10.8359
▁surprising	-10.8362
▁Wood	-10.8366
ode	-10.8367
▁worldwide	-10.8369
▁involving	-10.8372
▁seasonal	-10.8373
▁blade	-10.838
▁precise	-10.8383
▁Master	-10.8388
there	-10.8393
▁collaboration	-10.8396
▁alien	-10.8398
▁particles	-10.8399
▁salad	-10.8404
than	-10.8405
▁assigned	-10.8405
▁wrist	-10.8406
▁vulnerable	-10.8409
word	-10.8413
▁emphasize	-10.8413
▁packed	-10.8418
▁tickets	-10.8421
▁divided	-10.8429
▁shout	-10.843
▁Jones	-10.8436
▁Data	-10.8438
▁undergo	-10.844
Still	-10.8449
▁membrane	-10.845
▁publicly	-10.8456
▁greet	-10.8457
▁Android	-10.8458
▁exploit	-10.8461
▁experiencing	-10.8465
▁backward	-10.8467
▁seeds	-10.8469
▁developers	-10.8477
▁pregnancy	-10.8478
▁glasses	-10.8482
bol	-10.8484
▁Lee	-10.8489
Again	-10.849
▁qualified	-10.8491
▁residential	-10.8495
train	-10.8498
▁golden	-10.85
▁lesion	-10.85
ami	-10.8502
▁attended	-10.8513
▁dramatic	-10.8516
▁disclose	-10.8519
▁subtle	-10.8523
▁gathering	-10.8523
▁thrown	-10.8527
▁sew	-10.8528
▁cellular	-10.8528
▁Carl	-10.8534
▁diabetes	-10.8538
▁tries	-10.8544
▁stake	-10.8549
Though	-10.8554
▁fake	-10.8555
▁employ	-10.8555
▁traveling	-10.8556
▁screening	-10.8559
▁horrible	-10.8562
▁roughly	-10.8568
MS	-10.8572
▁imagination	-10.8574
▁overwhelming	-10.8578
▁GP	-10.8578
▁remainder	-10.8578
▁slot	-10.8579
▁worship	-10.8583
▁grasp	-10.8583
▁Okay	-10.8586
▁math	-10.8587
Perhaps	-10.8593
▁trait	-10.8594
▁Book	-10.8594
▁relations	-10.8596
▁harvest	-10.8596
▁dishes	-10.8601
▁ser	-10.8602
▁vac	-10.8602
▁march	-10.8602
run	-10.8603
▁burned	-10.8603
▁handling	-10.8604
▁relates	-10.8605
▁equivalent	-10.8607
▁None	-10.8616
▁frozen	-10.8617
▁correction	-10.8619
Whether	-10.8621
▁Real	-10.8621
▁opposition	-10.8622
▁progressive	-10.8622
▁efficiently	-10.8624
non	-10.863
▁fist	-10.8631
▁incentive	-10.8634
▁narrative	-10.8642
▁ninth	-10.8642
▁applying	-10.8645
▁instantly	-10.8646
mbling	-10.8653
▁terminal	-10.8656
Only	-10.8657
▁retirement	-10.8657
▁distributed	-10.8661
gate	-10.8662
▁bare	-10.8663
▁stiff	-10.8663
oli	-10.8665
▁observations	-10.8669
▁discovery	-10.8675
Da	-10.8677
▁arrival	-10.8681
▁dirty	-10.8685
▁OS	-10.8688
▁fence	-10.8688
▁Angel	-10.8689
▁Nick	-10.8697
▁emphasis	-10.8703
▁jurisdiction	-10.8706
▁dominate	-10.8706
Ro	-10.8706
▁radiation	-10.8707
▁gather	-10.8708
▁NA	-10.8708
▁fucking	-10.8712
▁nonGAAP	-10.8726
mato	-10.8726
▁Ham	-10.8727
▁nowhere	-10.8728
▁Spain	-10.8729
▁shifted	-10.8734
▁woke	-10.8735
▁pulse	-10.8736
▁lighting	-10.874
▁associate	-10.8741
cular	-10.8746
▁slipped	-10.8746
▁Anna	-10.8748
ddy	-10.8748
▁objectives	-10.8751
zi	-10.8756
▁frequent	-10.8758
▁owe	-10.876
▁SS	-10.8765
▁corporation	-10.8768
▁suggestions	-10.8774
▁assessed	-10.8775
▁Sarah	-10.8778
▁flame	-10.8779
▁boots	-10.8788
▁compelling	-10.879
▁athlete	-10.8792
▁ads	-10.8794
▁productive	-10.8796
▁reply	-10.8798
▁sessions	-10.8799
active	-10.8802
rink	-10.8804
eller	-10.8805
▁friendship	-10.8808
▁lowest	-10.881
▁mouse	-10.8811
▁Cy	-10.8812
▁banking	-10.882
▁constitute	-10.8825
▁coordinate	-10.8828
▁realistic	-10.8828
▁exclusive	-10.883
▁conviction	-10.8831
▁forum	-10.8835
▁thumb	-10.884
▁bin	-10.8844
▁drill	-10.8846
burg	-10.8855
ience	-10.8857
shot	-10.8859
▁rural	-10.8862
▁shortly	-10.8862
▁patent	-10.8863
▁Being	-10.8865
▁neo	-10.8867
▁Mal	-10.8869
▁riding	-10.8869
▁flower	-10.887
izz	-10.8872
Given	-10.8874
rack	-10.8875
▁Fu	-10.8875
▁cautious	-10.8875
hole	-10.8885
▁soup	-10.8888
▁museum	-10.8892
▁PS	-10.8895
▁deploy	-10.8901
▁PA	-10.8905
▁notion	-10.8906
iate	-10.8908
▁tracking	-10.8911
▁Long	-10.8914
under	-10.8916
▁skip	-10.8916
▁ownership	-10.8917
▁Jackson	-10.892
▁ham	-10.8923
▁endless	-10.893
▁adverse	-10.8932
▁shelter	-10.8935
▁towel	-10.8937
▁slave	-10.894
▁Care	-10.894
logy	-10.894
▁refuge	-10.8941
▁shaking	-10.8941
▁cabinet	-10.8942
▁passionate	-10.8943
Such	-10.8944
▁declined	-10.8944
▁possibilities	-10.8945
plication	-10.8946
▁extraordinary	-10.8952
ground	-10.8952
▁Donald	-10.8952
▁aimed	-10.8952
▁parameter	-10.8957
▁honey	-10.8964
▁fishing	-10.8965
▁horror	-10.8967
▁precisely	-10.8967
▁Fri	-10.8977
▁Spring	-10.8979
▁insist	-10.8983
▁invested	-10.8987
▁System	-10.8989
▁sustain	-10.8993
▁Hy	-10.8998
▁emotion	-10.9006
▁Den	-10.9008
▁inches	-10.9009
▁Spirit	-10.9009
▁Port	-10.9013
▁Club	-10.9017
▁defensive	-10.9019
▁impose	-10.9025
▁ur	-10.9025
▁hitting	-10.9028
▁concert	-10.9028
▁cents	-10.9029
▁wisdom	-10.9035
▁operators	-10.9038
▁Learn	-10.904
▁toilet	-10.9041
▁MP	-10.9042
▁assumption	-10.9053
▁reminded	-10.9053
▁sword	-10.9064
gram	-10.9067
▁statistics	-10.9068
▁resort	-10.9069
▁Obviously	-10.907
▁diagnostic	-10.9074
▁struggled	-10.9074
▁trusted	-10.908
▁captured	-10.9082
▁subscription	-10.9088
▁enemies	-10.9093
▁boot	-10.9097
▁swimming	-10.9103
▁CR	-10.9104
▁possession	-10.9105
▁personnel	-10.9107
▁Tell	-10.9109
wl	-10.9113
Through	-10.9113
▁analog	-10.9114
▁Army	-10.9115
▁Wal	-10.9115
▁accomplished	-10.912
▁Down	-10.9129
▁virtually	-10.913
▁royal	-10.9131
▁Association	-10.9132
▁Cri	-10.9133
▁compliance	-10.9133
▁curl	-10.914
yle	-10.9141
▁bun	-10.9141
▁pants	-10.9147
▁baseball	-10.9148
▁desperate	-10.9154
▁flick	-10.9155
▁displayed	-10.9157
▁laser	-10.9164
▁activation	-10.9167
▁Additionally	-10.9167
▁professor	-10.9168
▁southern	-10.9179
▁infant	-10.9181
▁smartphone	-10.9193
▁Ryan	-10.9198
esis	-10.9204
▁suggesting	-10.9208
ulating	-10.9209
▁Road	-10.921
▁violation	-10.921
▁coal	-10.921
▁relate	-10.9211
▁ghost	-10.9212
gon	-10.9212
▁propose	-10.9213
▁cleared	-10.9213
▁hiding	-10.9215
▁Vo	-10.9218
ographic	-10.922
▁sing	-10.922
▁dump	-10.9221
▁branches	-10.9222
▁exhaust	-10.9222
▁overnight	-10.9223
▁responded	-10.9225
▁tick	-10.9226
▁instinct	-10.9229
Under	-10.9231
▁vent	-10.9232
▁ultra	-10.9236
▁cord	-10.9236
▁Angeles	-10.924
▁kissed	-10.924
▁submitted	-10.9247
▁blast	-10.9251
ifies	-10.9253
▁Ya	-10.9253
▁Korea	-10.9256
▁Exp	-10.9258
▁flip	-10.9258
▁Social	-10.9258
▁discussing	-10.9259
▁thoroughly	-10.9263
▁gang	-10.9275
▁wireless	-10.9278
scribe	-10.9279
aught	-10.928
▁confusion	-10.9283
▁signature	-10.9289
omy	-10.929
▁singing	-10.929
spec	-10.9291
▁sur	-10.9291
▁tackle	-10.9293
▁Islam	-10.9293
▁bold	-10.9293
▁generating	-10.9294
▁Business	-10.9296
▁logo	-10.9298
▁Start	-10.9299
▁Pay	-10.9301
▁Someone	-10.9304
cation	-10.9305
▁Valley	-10.9307
▁tunnel	-10.9307
ific	-10.9309
▁priest	-10.9309
▁statute	-10.9312
▁contractor	-10.9315
▁Pacific	-10.9317
▁silly	-10.9321
▁quietly	-10.9324
▁rug	-10.9327
▁electricity	-10.9327
▁freeze	-10.9329
▁HIV	-10.9333
▁marry	-10.9334
▁crawl	-10.934
▁RA	-10.9342
▁dare	-10.9346
▁venue	-10.9348
▁fed	-10.9349
ution	-10.9351
▁stare	-10.9356
▁classical	-10.9356
based	-10.9356
▁span	-10.9357
▁peaceful	-10.9358
▁innocent	-10.936
▁Charlie	-10.936
▁remarkable	-10.9361
▁hug	-10.9363
▁hired	-10.9363
▁substantially	-10.9364
▁CC	-10.9366
▁lover	-10.9366
▁oxygen	-10.9368
astic	-10.937
▁identification	-10.9374
▁persist	-10.938
▁sequential	-10.938
▁companion	-10.9381
▁sooner	-10.9386
▁Olympic	-10.939
▁vector	-10.9393
operative	-10.9394
▁advocate	-10.9394
▁promising	-10.9396
▁Sub	-10.94
▁Qui	-10.9402
Did	-10.9402
▁sandwich	-10.9403
▁morph	-10.9408
▁phrase	-10.9408
▁setup	-10.9418
▁diagnosed	-10.9419
▁buck	-10.942
▁complications	-10.942
▁abstract	-10.9423
▁utilization	-10.9424
▁fragment	-10.9424
rian	-10.9425
▁bubble	-10.9428
▁Democratic	-10.943
▁offensive	-10.9433
▁Mother	-10.9434
▁derived	-10.9435
uce	-10.9437
▁precious	-10.9437
▁painted	-10.9444
Po	-10.9445
▁Ireland	-10.9452
▁separated	-10.9455
▁Southern	-10.9456
▁Nu	-10.9457
Custom	-10.9458
▁luxury	-10.9459
▁significance	-10.9459
▁optical	-10.946
▁USA	-10.9466
▁chin	-10.9466
▁CP	-10.9466
▁acceptable	-10.9466
▁industries	-10.9469
En	-10.9473
See	-10.9475
▁implications	-10.9476
▁attending	-10.9478
ou	-10.9479
▁matrix	-10.9479
▁criticism	-10.9479
▁tighten	-10.9485
▁manual	-10.9486
ibly	-10.9489
organ	-10.9491
▁identical	-10.95
▁strict	-10.9506
▁HD	-10.9511
▁fitness	-10.9515
▁Chief	-10.9515
▁dip	-10.9516
lude	-10.9516
▁loaded	-10.9516
▁Indeed	-10.9517
▁prohibit	-10.9519
Qu	-10.952
▁ge	-10.953
▁convenience	-10.9531
pin	-10.9531
rap	-10.9532
pat	-10.9532
▁imagined	-10.9533
▁Pakistan	-10.9534
▁faint	-10.9534
▁troops	-10.9534
▁blank	-10.9535
Looking	-10.9536
holder	-10.9536
▁weekly	-10.954
▁intelligent	-10.9544
▁allocation	-10.9544
▁manuscript	-10.9545
▁Dave	-10.9546
agin	-10.9555
▁territory	-10.9558
▁dash	-10.9566
▁polar	-10.9568
▁Ash	-10.9578
▁Cur	-10.9581
▁Coast	-10.9585
▁unlock	-10.9589
▁waist	-10.959
▁modification	-10.9592
ception	-10.9599
ura	-10.96
▁affirm	-10.9603
▁prize	-10.9605
▁confess	-10.9607
▁CM	-10.9611
▁executed	-10.9613
▁membership	-10.9616
ita	-10.9617
▁requested	-10.9618
eng	-10.9621
▁Pol	-10.9621
▁consciousness	-10.9623
▁admission	-10.9626
▁standpoint	-10.9628
▁PD	-10.9629
▁baking	-10.9631
▁humor	-10.9633
▁nicely	-10.9634
▁harsh	-10.9635
▁Watch	-10.9638
▁Ten	-10.9639
▁manufacture	-10.964
▁awkward	-10.9641
▁reinforce	-10.9644
▁fate	-10.9645
▁Scotland	-10.9652
Next	-10.9654
▁institution	-10.9654
▁abandoned	-10.9655
▁maximize	-10.9656
▁frankly	-10.9665
▁achieving	-10.9666
▁plasma	-10.9668
▁throwing	-10.967
gling	-10.9672
▁mutual	-10.9676
▁Arch	-10.9679
▁modified	-10.968
▁council	-10.9681
▁musical	-10.9681
Good	-10.9683
▁assistant	-10.9684
▁participating	-10.9685
fire	-10.9687
▁peri	-10.9688
▁Royal	-10.9692
▁county	-10.9692
▁unclear	-10.9693
▁Class	-10.9694
▁Gen	-10.9696
▁drama	-10.9696
▁Mari	-10.9697
▁talented	-10.9699
▁buried	-10.9703
▁Georgia	-10.9712
▁recommendations	-10.9712
▁disk	-10.9713
▁Research	-10.972
▁distant	-10.9721
▁mor	-10.9724
▁Security	-10.9725
▁Far	-10.9727
▁mutation	-10.9728
▁western	-10.9728
▁Gold	-10.9731
▁Land	-10.9734
▁functionality	-10.9741
▁lymph	-10.9743
▁tale	-10.9745
▁vaccine	-10.9746
▁Word	-10.9746
▁scream	-10.9747
▁drum	-10.9747
▁executing	-10.9747
metric	-10.9749
ko	-10.9749
▁Nobody	-10.9751
▁upside	-10.9752
▁captain	-10.9755
▁dismiss	-10.9756
▁theater	-10.9757
▁dim	-10.9757
▁logical	-10.9759
▁Click	-10.9763
▁Institute	-10.9763
▁organisation	-10.9769
▁inherent	-10.977
▁brave	-10.977
▁slower	-10.977
▁grey	-10.9773
▁dancing	-10.9781
▁trim	-10.9783
▁sensation	-10.9787
▁electro	-10.979
▁dough	-10.9791
iel	-10.9791
▁reporter	-10.9791
▁enzyme	-10.9792
▁behalf	-10.9793
▁Earl	-10.9795
▁emerged	-10.9796
amine	-10.9797
▁Ven	-10.9801
▁Meanwhile	-10.9802
▁deployment	-10.9802
ime	-10.9806
▁cognitive	-10.9806
▁quo	-10.9807
▁simultaneously	-10.9808
▁passes	-10.9808
▁probability	-10.9809
▁Israeli	-10.981
▁printed	-10.9812
market	-10.9816
▁Tony	-10.9818
▁restrictions	-10.982
▁Phil	-10.982
▁appreciated	-10.9824
▁brow	-10.9824
▁suite	-10.9824
▁Brian	-10.9824
power	-10.9825
▁involvement	-10.9827
▁ven	-10.983
▁upload	-10.9836
▁Andrew	-10.9837
▁Dev	-10.9838
▁workshop	-10.9838
▁neat	-10.9845
clo	-10.9845
▁Several	-10.9845
▁classroom	-10.9849
▁abilities	-10.985
avi	-10.9851
▁wider	-10.9852
▁efficiencies	-10.9857
▁chamber	-10.986
▁shorter	-10.9863
▁suicide	-10.9863
▁cabin	-10.9867
▁SE	-10.9871
count	-10.9872
▁politicians	-10.9874
▁deliberate	-10.9877
▁Cro	-10.9877
▁myth	-10.9878
▁worn	-10.9878
▁democracy	-10.9881
▁Science	-10.9882
▁snack	-10.9892
▁Sky	-10.9895
▁handful	-10.9897
▁Human	-10.9906
▁rhythm	-10.9907
▁teen	-10.9907
▁liability	-10.9911
▁Give	-10.9912
▁clarity	-10.9916
▁dialogue	-10.9916
▁gen	-10.9918
▁purchasing	-10.9919
▁outfit	-10.9924
▁mold	-10.9926
▁mining	-10.9928
▁naked	-10.9931
▁landing	-10.9931
▁factory	-10.9933
▁lamp	-10.9933
▁govern	-10.9936
▁mystery	-10.9936
▁jar	-10.9939
imp	-10.994
▁contemporary	-10.9944
▁applies	-10.9947
▁Show	-10.9947
▁rap	-10.9959
▁dramatically	-10.9959
▁compassion	-10.9959
cin	-10.9961
▁disrupt	-10.9963
▁Adv	-10.9963
▁babies	-10.997
▁abnormal	-10.9972
▁RNA	-10.9972
▁boring	-10.9976
▁temple	-10.9978
▁appellant	-10.9979
uk	-10.9979
▁unde	-10.9983
▁Police	-10.9983
▁shareholder	-10.9984
▁consists	-10.9985
▁tar	-10.9985
Build	-10.9989
▁gorgeous	-10.9991
▁tile	-10.9993
▁sentiment	-11.0005
▁praise	-11.0006
▁lemon	-11.0007
lim	-11.0013
▁echo	-11.0021
▁swim	-11.0021
▁poison	-11.0023
▁nano	-11.0026
ulator	-11.0027
phone	-11.0039
▁mag	-11.004
▁Federal	-11.0044
▁EC	-11.0047
▁minimize	-11.0051
▁grid	-11.0052
▁blur	-11.0052
▁hiring	-11.0053
▁GAAP	-11.0053
▁difficulties	-11.0054
▁cure	-11.0056
▁workout	-11.0062
▁citizen	-11.0067
Similar	-11.0067
▁mortality	-11.0075
▁assuming	-11.008
Sure	-11.008
Get	-11.0082
▁bend	-11.0083
▁yeah	-11.0087
RC	-11.0087
▁optimization	-11.0092
▁Tech	-11.0096
▁convey	-11.01
▁qualify	-11.0105
▁rope	-11.0109
nova	-11.011
▁electron	-11.0111
▁artificial	-11.0113
▁scent	-11.0116
▁interval	-11.0118
▁girlfriend	-11.0118
▁Form	-11.0126
born	-11.0126
▁digest	-11.0129
▁ES	-11.0132
Take	-11.0136
▁admire	-11.0136
mod	-11.0138
▁lib	-11.014
▁consequence	-11.0146
▁elevated	-11.0152
▁cru	-11.0156
▁disciplined	-11.0158
▁progression	-11.0158
▁Walk	-11.0161
▁rejected	-11.0161
▁contrary	-11.0165
▁Eric	-11.0166
▁Trust	-11.0166
▁Irish	-11.0167
▁anxious	-11.0179
▁ethnic	-11.0181
▁cooked	-11.0185
▁Count	-11.0186
related	-11.0189
▁generous	-11.0191
▁equi	-11.0192
▁psycho	-11.0193
▁engaging	-11.0198
▁arranged	-11.0199
▁tenant	-11.0208
▁rival	-11.0213
▁barrel	-11.0213
▁sneak	-11.0213
roid	-11.0214
▁psychological	-11.0227
▁cousin	-11.0229
▁flour	-11.0233
▁discharge	-11.0235
▁Louis	-11.0235
▁norm	-11.024
▁comb	-11.024
key	-11.0243
▁festival	-11.0243
▁Food	-11.0243
▁tub	-11.0243
▁applicable	-11.0251
▁injection	-11.0251
▁historically	-11.0255
▁receiver	-11.0261
▁poem	-11.0261
▁Things	-11.0261
▁sustained	-11.0262
▁accent	-11.0264
▁rub	-11.0264
▁loo	-11.0272
ologies	-11.0273
▁sir	-11.0277
▁humanity	-11.0277
▁magnitude	-11.028
▁restructuring	-11.028
▁northern	-11.0281
▁polish	-11.0283
▁CEO	-11.0285
▁historic	-11.0285
col	-11.0286
▁needle	-11.0289
▁SA	-11.0291
▁exploring	-11.0294
ington	-11.0296
▁steep	-11.0298
▁plug	-11.0307
▁safely	-11.0311
▁integrity	-11.0316
leg	-11.0317
▁washed	-11.0324
through	-11.0327
▁kicked	-11.033
▁evolve	-11.0333
▁logistic	-11.0333
Ja	-11.0334
▁attacked	-11.0337
▁enforcement	-11.0341
ense	-11.0341
▁incorporate	-11.0346
▁Jon	-11.0348
ji	-11.0353
▁Syria	-11.0356
▁Place	-11.0356
▁killer	-11.0362
▁Soviet	-11.0363
ule	-11.037
▁tan	-11.0377
▁unfortunately	-11.0377
▁Celsius	-11.0377
uel	-11.0378
▁casino	-11.0381
▁Carolina	-11.0381
▁Little	-11.0386
▁Santa	-11.0386
▁separation	-11.0387
▁Gal	-11.0388
▁Minister	-11.0394
Having	-11.0394
▁voltage	-11.0398
▁patience	-11.04
▁volatility	-11.0403
space	-11.0417
▁migration	-11.0418
ban	-11.042
▁targeting	-11.0423
▁Note	-11.0425
▁systematic	-11.0426
▁respective	-11.0429
▁assay	-11.043
▁legend	-11.0436
▁Northern	-11.0444
berry	-11.0444
worth	-11.0446
▁Ve	-11.0446
▁grin	-11.0447
▁bent	-11.0448
▁Fer	-11.0449
▁repeatedly	-11.045
▁behave	-11.0452
after	-11.0453
▁orbit	-11.0457
▁Fred	-11.0457
▁cheaper	-11.0459
▁horizon	-11.0461
▁induced	-11.0465
▁pillow	-11.0467
▁Wo	-11.0467
▁macro	-11.0467
▁creep	-11.0468
Car	-11.0469
▁angel	-11.0472
▁enabled	-11.0474
▁jaw	-11.0474
▁stopping	-11.0475
▁whisk	-11.0476
▁announce	-11.0476
pparently	-11.0478
▁organize	-11.0485
▁contend	-11.0487
▁advertise	-11.0488
▁brew	-11.0488
▁guilt	-11.0493
▁merit	-11.0497
▁entrepreneur	-11.0501
▁screaming	-11.0508
▁champion	-11.0511
▁Victoria	-11.0515
▁predicted	-11.0519
▁neighbour	-11.052
▁viewed	-11.0521
▁Gro	-11.0528
▁celebration	-11.0528
▁retreat	-11.0528
▁threatened	-11.053
▁nest	-11.0531
Vi	-11.0531
▁bacteria	-11.0532
▁knocked	-11.0532
▁resolved	-11.0533
▁inspect	-11.0534
▁shocked	-11.0538
▁Pen	-11.054
Mi	-11.0543
▁racing	-11.0547
▁influenced	-11.0548
▁intake	-11.055
▁descend	-11.0552
▁serum	-11.0554
▁Tro	-11.0554
ifier	-11.0555
erate	-11.0559
▁creativity	-11.0559
▁argued	-11.0561
▁instruction	-11.0567
▁tru	-11.0567
star	-11.057
▁pizza	-11.0576
▁Francisco	-11.0579
▁candle	-11.058
▁stamp	-11.0581
▁Fire	-11.0581
encies	-11.0582
▁glove	-11.0586
▁upward	-11.0594
lusion	-11.0596
▁constructed	-11.0599
▁laboratory	-11.0601
▁Fr	-11.0601
Have	-11.0607
▁elbow	-11.0608
▁dental	-11.0609
▁rack	-11.0611
▁nuts	-11.0611
▁blocked	-11.0611
rum	-11.0614
▁FA	-11.0615
▁romantic	-11.062
▁tweet	-11.0621
▁fancy	-11.0623
▁forehead	-11.0626
▁flew	-11.0628
▁wished	-11.0629
▁ambition	-11.0629
▁effectiveness	-11.0631
imate	-11.0632
▁terrorist	-11.0633
▁jet	-11.0634
▁prominent	-11.0636
gel	-11.0637
▁compliment	-11.0639
▁implant	-11.0639
▁inflammatory	-11.0642
mission	-11.065
▁Sand	-11.0652
AT	-11.0654
▁forgot	-11.0656
▁rotation	-11.0657
▁shield	-11.066
▁pond	-11.0661
▁sleeve	-11.0663
▁convince	-11.0664
▁bored	-11.0672
▁reception	-11.0673
▁accused	-11.0676
▁offend	-11.0677
▁mut	-11.0679
▁immigration	-11.068
▁commodity	-11.0681
▁About	-11.0681
bie	-11.0686
▁transferred	-11.0687
▁grill	-11.0691
▁ruling	-11.0693
▁magical	-11.0696
▁deco	-11.0701
▁Vietnam	-11.0701
eno	-11.0703
▁NFL	-11.0706
▁elegant	-11.0715
▁scored	-11.0717
▁keen	-11.0717
▁reliability	-11.0719
▁centuries	-11.072
CO	-11.0721
▁acceptance	-11.073
▁ST	-11.0736
▁steer	-11.0739
▁Edward	-11.0742
▁existed	-11.0743
▁treasure	-11.0745
cover	-11.0745
▁AP	-11.0748
▁solely	-11.0751
▁addresses	-11.0753
▁shore	-11.0756
▁Hollywood	-11.0756
▁Hunt	-11.0756
▁stunning	-11.0759
▁ensuring	-11.076
▁basket	-11.0762
▁chase	-11.0763
▁Looking	-11.0764
▁removing	-11.0764
Sp	-11.0766
▁frustration	-11.0774
▁climbed	-11.0776
▁hike	-11.0776
▁jerk	-11.0776
▁substitute	-11.0792
▁limb	-11.0796
▁controlling	-11.0797
▁overhead	-11.0799
▁sofa	-11.08
card	-11.0803
▁wherever	-11.0804
▁Michigan	-11.0809
▁Cook	-11.0809
▁brick	-11.0811
▁failing	-11.0813
▁Actually	-11.0814
▁refund	-11.0814
▁leaf	-11.082
▁Boy	-11.0821
▁CB	-11.0821
▁grandmother	-11.0823
▁twentieth	-11.0823
▁PR	-11.0824
▁Pra	-11.0825
will	-11.0828
▁backlog	-11.0829
▁rust	-11.0829
▁Kevin	-11.0831
▁hunting	-11.0831
▁wallet	-11.0832
▁temp	-11.0835
▁mineral	-11.0843
▁Mad	-11.0843
vie	-11.0849
▁seller	-11.085
▁spine	-11.0852
▁squad	-11.0865
▁feeding	-11.0869
ctua	-11.0874
▁trash	-11.0881
▁spill	-11.0881
▁discretion	-11.0881
▁downtown	-11.0884
most	-11.0893
▁vice	-11.0896
ati	-11.0899
▁certificate	-11.0899
▁partial	-11.0902
▁manifest	-11.0902
▁Women	-11.0904
▁ugly	-11.0905
▁gaming	-11.091
▁slept	-11.0911
▁curtain	-11.0914
▁Ray	-11.0918
▁hybrid	-11.0918
▁compile	-11.0919
une	-11.0926
▁identifying	-11.0929
▁consecutive	-11.0929
▁recognise	-11.0929
▁veteran	-11.0931
itude	-11.0934
▁recovered	-11.0935
▁Holy	-11.0935
▁whip	-11.0938
▁Sudden	-11.0946
▁empower	-11.0947
bon	-11.0949
▁differential	-11.095
Ho	-11.0956
▁layout	-11.0956
▁ladies	-11.0956
▁Ohio	-11.0957
▁favour	-11.0968
▁overview	-11.0968
▁attraction	-11.0972
▁flo	-11.0974
▁lac	-11.0976
▁drilling	-11.0978
▁phenomenon	-11.0978
▁Simon	-11.0978
▁liquidity	-11.0979
▁consistency	-11.0982
▁scary	-11.0984
▁basketball	-11.0985
▁selective	-11.0993
▁delayed	-11.1
▁Eli	-11.1005
▁ox	-11.1005
▁cruel	-11.1007
▁boyfriend	-11.101
▁reject	-11.1012
▁cloth	-11.1021
▁bud	-11.1023
▁deadline	-11.103
▁armed	-11.1034
▁Age	-11.1036
▁bounce	-11.1038
▁FBI	-11.104
▁bundle	-11.104
▁ion	-11.1042
Jo	-11.1047
▁broker	-11.1048
▁competing	-11.1048
▁integrate	-11.1054
Make	-11.1059
▁overlap	-11.1061
▁spite	-11.1065
▁mud	-11.1065
▁administrative	-11.1067
▁homo	-11.1067
▁damp	-11.1069
▁analyst	-11.1074
▁equipped	-11.1074
▁sophisticated	-11.1079
▁Mill	-11.1079
▁Know	-11.1079
hir	-11.1079
arily	-11.1083
▁protecting	-11.1084
▁apologize	-11.1085
▁pill	-11.1092
▁inspire	-11.1097
▁thereby	-11.1101
Cl	-11.1104
▁Greg	-11.1104
▁NS	-11.111
▁dial	-11.1111
wear	-11.112
▁separately	-11.1123
▁excluded	-11.1123
post	-11.1125
▁prospect	-11.1125
uth	-11.1127
▁Main	-11.1132
▁Guard	-11.1132
▁strive	-11.1133
▁advisor	-11.1135
▁yoga	-11.1135
▁meta	-11.1137
▁restricted	-11.1137
hol	-11.1144
fuse	-11.115
▁vanish	-11.1151
▁Society	-11.1153
▁duck	-11.1163
quest	-11.1164
▁loyalty	-11.1165
▁sigh	-11.1167
▁profound	-11.1169
▁teenager	-11.1169
▁probe	-11.1171
FC	-11.1175
▁hop	-11.1177
▁terror	-11.1183
▁treating	-11.1184
▁Disney	-11.1185
▁API	-11.1187
▁thoughtful	-11.1194
▁sweep	-11.1196
▁accommodate	-11.1198
▁surge	-11.12
▁pest	-11.1201
▁pension	-11.1202
▁grinned	-11.1203
▁voted	-11.1206
Will	-11.1212
▁makeup	-11.1216
Clearly	-11.1218
▁Dun	-11.1218
▁modify	-11.1219
▁Public	-11.1225
▁forgive	-11.1226
▁Force	-11.1228
▁condo	-11.1229
▁EM	-11.1231
▁DM	-11.1235
▁Rather	-11.1239
▁Ci	-11.124
▁Ever	-11.1242
▁consolidate	-11.1242
▁hypothesis	-11.1244
▁straightforward	-11.1246
▁stumble	-11.1246
▁analytics	-11.1247
▁prospective	-11.1248
▁col	-11.1258
▁closest	-11.1262
▁Kate	-11.1266
▁infinite	-11.1273
▁spatial	-11.1275
▁Rome	-11.1276
▁automatic	-11.1277
▁chew	-11.1279
▁plum	-11.1279
▁rushed	-11.128
▁controller	-11.1285
▁fraud	-11.1289
▁SC	-11.129
▁landed	-11.1295
▁temper	-11.1298
▁mate	-11.1303
Indeed	-11.1304
▁fitting	-11.1304
▁establishment	-11.131
▁lane	-11.1314
EC	-11.1316
▁lightly	-11.1321
▁assembly	-11.1321
▁elderly	-11.1323
▁Tea	-11.1324
angle	-11.1326
▁vet	-11.1328
▁Eastern	-11.133
▁substrate	-11.133
▁Best	-11.1332
▁clever	-11.1335
▁buzz	-11.1336
▁complement	-11.1336
▁inspection	-11.1338
▁waved	-11.134
▁assured	-11.134
▁characterized	-11.1345
▁premise	-11.1348
▁Labour	-11.1349
▁beans	-11.1352
gno	-11.1352
▁satellite	-11.1353
▁firmly	-11.1353
▁bleeding	-11.1356
▁poverty	-11.1358
▁strap	-11.1359
▁Houston	-11.136
RP	-11.1363
▁roast	-11.1364
▁shine	-11.1364
▁disclosure	-11.1365
Further	-11.1365
▁practically	-11.1367
media	-11.1369
▁Rick	-11.1374
▁nap	-11.1376
due	-11.138
▁dropping	-11.1384
▁contradict	-11.1384
▁crisp	-11.1386
▁transparent	-11.1389
▁swear	-11.1392
▁Mountain	-11.1396
▁investor	-11.1397
▁vocal	-11.1398
▁skirt	-11.1398
▁calculate	-11.1399
ike	-11.1399
▁backup	-11.14
▁matching	-11.1401
▁packaging	-11.1402
each	-11.1403
▁blessing	-11.1422
▁affiliate	-11.1424
▁viral	-11.1424
▁polite	-11.1428
▁Dec	-11.1429
▁Hard	-11.1431
▁supporters	-11.1432
phi	-11.1432
▁max	-11.1433
▁highlighted	-11.1435
▁envelope	-11.1438
ologic	-11.1439
▁baseline	-11.144
▁rib	-11.1441
▁Program	-11.1443
▁airline	-11.1443
▁dread	-11.1455
vation	-11.1456
▁fortunate	-11.1457
▁float	-11.146
▁photography	-11.1461
▁fighter	-11.1463
▁obstacle	-11.1464
▁uncertain	-11.1465
▁SM	-11.1466
▁prescription	-11.1468
▁Page	-11.1471
▁Bell	-11.1473
▁closure	-11.1474
▁constraints	-11.1477
ique	-11.1478
▁negotiate	-11.1478
▁mum	-11.148
▁spice	-11.1481
▁Off	-11.1482
name	-11.1485
▁Jason	-11.1486
▁Otherwise	-11.1493
▁SD	-11.1498
▁survived	-11.1502
last	-11.1507
▁lobby	-11.1508
▁secured	-11.1516
▁concentrate	-11.1517
▁LA	-11.1519
▁kidney	-11.1522
▁Until	-11.1523
▁inflammation	-11.153
▁sketch	-11.1531
▁dressing	-11.1536
▁shipment	-11.1537
▁reaches	-11.1538
▁suspected	-11.1546
Without	-11.1548
▁photographer	-11.1553
▁cheat	-11.1553
▁Colorado	-11.1556
▁surf	-11.156
▁guaranteed	-11.1564
▁regression	-11.1567
▁boundaries	-11.1568
▁copies	-11.1568
▁SEC	-11.1568
▁dried	-11.1569
▁hormone	-11.1576
▁challenged	-11.1577
▁surgeon	-11.1577
▁cotton	-11.1583
▁stir	-11.1588
▁Elizabeth	-11.1592
▁Sho	-11.1592
▁entitled	-11.1608
▁Young	-11.1609
▁thermal	-11.1611
▁abroad	-11.1613
▁outline	-11.1613
gri	-11.1619
▁intimate	-11.162
▁Nevertheless	-11.162
▁frowned	-11.1627
▁presidential	-11.1629
RT	-11.1631
▁differentiation	-11.1634
▁amongst	-11.1636
▁trailer	-11.1637
▁deter	-11.1638
▁neglect	-11.1641
▁Beach	-11.1642
▁Constitution	-11.1643
▁Ram	-11.1645
▁uncle	-11.1647
▁fantasy	-11.1656
Overall	-11.1656
▁Later	-11.1659
▁Cross	-11.1665
▁skilled	-11.1668
type	-11.1668
▁stretched	-11.1673
▁bolt	-11.1673
▁exhausted	-11.1674
▁classification	-11.1674
▁elect	-11.1681
▁anchor	-11.1682
▁folder	-11.1689
▁betray	-11.1691
▁printing	-11.1692
▁voting	-11.1692
▁Brand	-11.1694
▁hence	-11.17
▁lecture	-11.1706
▁compact	-11.1709
▁basement	-11.1711
▁Taylor	-11.1711
▁bang	-11.1714
▁Fair	-11.1719
▁dense	-11.1722
▁Parliament	-11.1726
▁residence	-11.1733
▁enhancement	-11.1734
kind	-11.1736
▁Bush	-11.1736
▁searched	-11.1737
▁freak	-11.1738
▁independence	-11.174
▁Korean	-11.1743
▁elite	-11.1744
▁mist	-11.1745
▁Cap	-11.1747
life	-11.1749
▁retention	-11.1749
▁distress	-11.1752
▁navigate	-11.1753
▁align	-11.1753
▁dumb	-11.176
▁transplant	-11.176
▁grim	-11.1763
▁edition	-11.1767
▁motivated	-11.177
▁flush	-11.1777
▁eyebrow	-11.1778
▁Special	-11.1781
▁mechanic	-11.1782
uter	-11.1786
▁documentation	-11.1787
▁underneath	-11.1789
▁compute	-11.1792
Comp	-11.1793
▁await	-11.1793
▁striking	-11.1795
▁bucket	-11.1798
▁featured	-11.1798
ius	-11.1799
▁cyto	-11.1799
▁hallway	-11.18
▁globe	-11.18
▁Director	-11.18
▁violate	-11.1802
▁punish	-11.1803
▁fortune	-11.1806
▁constitutional	-11.1807
▁contributing	-11.1811
▁headwind	-11.1811
▁quantity	-11.1822
▁minus	-11.1823
▁tightly	-11.1827
▁Top	-11.183
▁poke	-11.1832
▁nightmare	-11.1835
▁varied	-11.1836
▁destruction	-11.1838
▁efficacy	-11.184
▁Given	-11.1843
▁Project	-11.1844
▁Joseph	-11.1853
▁nineteenth	-11.1853
▁theoretical	-11.1856
▁theories	-11.1857
▁chunk	-11.1857
▁Auto	-11.1861
▁Sir	-11.1862
▁Six	-11.1863
cake	-11.1863
▁bro	-11.1864
▁legitimate	-11.1866
▁governor	-11.1866
▁vague	-11.1869
▁fracture	-11.1873
▁Ron	-11.1874
▁Cam	-11.1875
▁appointed	-11.1875
▁addict	-11.1881
▁protective	-11.1884
▁insult	-11.1887
hou	-11.1887
▁Justice	-11.189
▁massage	-11.1893
▁beef	-11.1898
Based	-11.1902
▁Kim	-11.1902
▁Egypt	-11.1904
▁entity	-11.1904
▁embedded	-11.1906
▁syndrome	-11.1906
▁Julia	-11.1906
▁grind	-11.1906
▁YouTube	-11.1908
▁warmth	-11.1908
▁nursing	-11.191
ask	-11.1911
▁independently	-11.1911
▁laughter	-11.1914
▁ER	-11.1915
▁MA	-11.1916
▁delicate	-11.1917
▁Gene	-11.1919
▁ankle	-11.1921
▁specialty	-11.1924
▁withdraw	-11.1927
▁submission	-11.1932
▁adhere	-11.1938
▁hub	-11.1938
▁gaining	-11.194
▁mattress	-11.1946
morph	-11.1949
lib	-11.195
▁validate	-11.1951
▁Jordan	-11.1952
▁penalty	-11.1957
▁Run	-11.1958
▁operated	-11.1958
▁physics	-11.1961
Invest	-11.1962
class	-11.1967
▁coaches	-11.1968
▁sip	-11.1973
▁Hospital	-11.1976
▁depict	-11.198
shire	-11.1983
▁static	-11.1983
link	-11.1984
▁UN	-11.1987
▁indoor	-11.1993
chemical	-11.1994
▁accompanied	-11.1994
▁activist	-11.1994
mail	-11.1996
▁crap	-11.2001
▁pursuing	-11.2002
miss	-11.2005
▁essence	-11.2005
▁genre	-11.2007
▁exploration	-11.2009
Moving	-11.2009
▁unnecessary	-11.2015
▁Ob	-11.2016
▁highway	-11.2016
▁reconciliation	-11.2017
▁NP	-11.2018
▁Management	-11.202
▁Foundation	-11.2022
grade	-11.2023
▁indicating	-11.2024
▁representing	-11.2024
craft	-11.2024
▁grief	-11.2026
▁disruption	-11.2035
▁Further	-11.2038
▁soldier	-11.2042
asse	-11.2044
▁linger	-11.2046
▁dominant	-11.2046
▁funeral	-11.2047
▁Design	-11.2052
▁abortion	-11.2056
▁GM	-11.2062
▁accordance	-11.2066
▁placement	-11.2066
▁potatoes	-11.2067
▁finishing	-11.207
▁excellence	-11.2071
ogenesis	-11.2073
▁supportive	-11.2074
▁eligible	-11.2074
Keep	-11.208
▁rifle	-11.2082
▁accurately	-11.2085
▁spotted	-11.2087
▁floating	-11.2093
▁Test	-11.2095
Consequently	-11.21
▁ecosystem	-11.21
▁surprisingly	-11.2102
▁PE	-11.2102
▁punishment	-11.2103
▁Fall	-11.2104
▁Mat	-11.2105
▁convention	-11.2107
▁diploma	-11.2116
▁demographic	-11.2117
▁renewal	-11.2117
▁diamond	-11.2123
▁shy	-11.2125
▁SEO	-11.2132
present	-11.2133
▁CF	-11.2138
▁implementing	-11.2139
▁brutal	-11.2141
▁pra	-11.2142
▁III	-11.2143
▁publisher	-11.2148
▁jam	-11.215
▁cohort	-11.2151
▁dataset	-11.2154
▁seemingly	-11.2156
▁lender	-11.2158
▁vein	-11.2158
▁cough	-11.2175
▁conform	-11.2178
▁fever	-11.2185
▁BC	-11.2189
▁encountered	-11.2192
▁Lib	-11.2193
Look	-11.22
▁fascinating	-11.22
▁handled	-11.2201
▁assure	-11.2202
ander	-11.2204
agon	-11.2208
▁keyboard	-11.2209
▁diminish	-11.221
▁evaluating	-11.2211
▁Mexican	-11.2215
▁torture	-11.2218
▁curse	-11.2222
bound	-11.2223
▁declared	-11.2223
▁comparing	-11.2225
▁Team	-11.2226
▁headache	-11.2228
▁olive	-11.223
▁regarded	-11.2231
▁brace	-11.2231
▁Uni	-11.2234
▁MI	-11.2234
▁civilian	-11.2235
▁cease	-11.2236
▁connecting	-11.2241
▁gauge	-11.2244
▁excessive	-11.2246
▁infected	-11.2246
▁determining	-11.2246
▁peel	-11.2247
▁stall	-11.2249
▁meditation	-11.2249
▁Medical	-11.2252
▁vacuum	-11.2253
▁incidence	-11.2263
▁LED	-11.2268
▁tenth	-11.2269
▁Ali	-11.2271
▁distinction	-11.2277
▁Sound	-11.2278
▁cruise	-11.2279
▁insisted	-11.2279
▁lately	-11.2285
▁rubber	-11.2289
▁rh	-11.2291
▁RF	-11.2299
▁twisted	-11.23
▁garlic	-11.23
▁preach	-11.23
▁Palestinian	-11.2301
ogni	-11.2306
ada	-11.2308
▁bloody	-11.231
▁Ze	-11.2315
▁exclude	-11.2316
greg	-11.2317
▁Harris	-11.232
▁lawn	-11.2322
▁upstairs	-11.2329
▁mentor	-11.233
Recently	-11.2332
▁inevitable	-11.2335
▁prevalence	-11.2335
▁wishes	-11.2336
▁Van	-11.2338
▁stabilize	-11.2343
▁officially	-11.2348
▁MC	-11.235
▁loyal	-11.235
▁antibiotic	-11.2351
guard	-11.2356
▁stolen	-11.2361
▁nutrient	-11.2362
▁velocity	-11.2362
▁Hence	-11.2363
▁Arizona	-11.2368
▁hedge	-11.2369
▁Fox	-11.2374
▁Especially	-11.238
▁milestone	-11.2386
▁Turkey	-11.2387
▁urgent	-11.2387
▁blond	-11.2387
▁Saint	-11.2392
▁elaborate	-11.2395
▁washing	-11.2398
▁awarded	-11.2398
▁continuously	-11.2399
▁commentary	-11.2406
▁boundary	-11.2407
▁Sil	-11.2411
▁Carol	-11.2411
▁servant	-11.2412
▁Press	-11.2412
▁precision	-11.2414
from	-11.2419
face	-11.242
▁bearing	-11.2422
▁characteristic	-11.2423
▁stitch	-11.2428
▁placing	-11.2428
▁rage	-11.2429
▁swell	-11.2429
▁pub	-11.243
▁pole	-11.2431
▁Consider	-11.2432
▁deficit	-11.2435
App	-11.2439
Regardless	-11.244
▁console	-11.2443
▁merchant	-11.2447
▁perceived	-11.2448
▁variant	-11.2451
▁Alice	-11.2457
▁retro	-11.2465
▁Officer	-11.2465
▁Roger	-11.2468
▁requiring	-11.247
▁strongest	-11.2474
▁reflecting	-11.2477
▁measuring	-11.248
spiration	-11.2481
Does	-11.2482
▁clam	-11.2483
▁frustrated	-11.2484
▁Mid	-11.2487
▁Hope	-11.2488
▁enforce	-11.2488
▁Town	-11.2489
▁spoil	-11.249
▁editing	-11.249
▁adjacent	-11.2492
▁meantime	-11.2497
▁Bitcoin	-11.2497
▁gi	-11.2498
▁purple	-11.2499
▁thankful	-11.25
▁Luke	-11.2501
▁jeans	-11.2503
▁costume	-11.2504
▁Bridge	-11.2507
▁blew	-11.2507
▁Prime	-11.2508
▁relating	-11.2511
therapy	-11.2513
▁insect	-11.2514
▁tilt	-11.2515
▁reasonably	-11.2515
▁cardiac	-11.2517
▁attempting	-11.2517
▁inclusion	-11.2527
▁chaos	-11.2531
▁accessories	-11.2531
▁expenditure	-11.2538
▁trapped	-11.2545
▁verify	-11.2547
▁poured	-11.255
▁investigator	-11.2552
▁Key	-11.2553
▁belly	-11.2554
▁occurring	-11.2556
▁Third	-11.2556
▁reset	-11.256
▁dull	-11.2563
▁disgust	-11.2564
▁focuses	-11.2575
pay	-11.2575
▁Jacob	-11.2576
▁Islamic	-11.2576
▁summarize	-11.2578
▁soap	-11.258
▁regulator	-11.2581
▁toast	-11.2583
▁induce	-11.2584
▁delight	-11.2585
▁promotional	-11.2585
▁unfold	-11.2586
▁bay	-11.2588
▁generic	-11.2593
weight	-11.2594
▁transmit	-11.2596
New	-11.26
▁aligned	-11.26
▁copyright	-11.2603
▁profession	-11.2605
▁Ask	-11.2605
▁ritual	-11.2605
▁distort	-11.2606
▁disappoint	-11.2609
▁incorrect	-11.2613
▁poorly	-11.2613
▁Seattle	-11.2614
▁thorough	-11.2616
▁Camp	-11.262
▁Low	-11.2624
▁Bla	-11.2625
▁warned	-11.2626
▁eaten	-11.2628
▁tract	-11.2629
▁Head	-11.2629
▁dragged	-11.263
▁unfair	-11.2635
▁converted	-11.264
▁condemn	-11.2642
▁halt	-11.2648
▁grocery	-11.2652
▁developer	-11.2656
▁explosion	-11.266
piece	-11.2665
▁accordingly	-11.2667
▁bush	-11.2669
▁Product	-11.267
▁shelf	-11.2675
▁desirable	-11.2676
▁gel	-11.2679
▁Within	-11.2679
▁sec	-11.2679
▁boom	-11.2684
▁bind	-11.2685
▁Stephen	-11.2686
▁absent	-11.2688
▁subsequently	-11.269
▁ranking	-11.2692
▁readily	-11.2693
▁Jersey	-11.2694
Use	-11.2694
▁Kong	-11.2694
▁invitation	-11.2696
▁Bru	-11.2697
▁promoting	-11.2702
▁Wild	-11.2703
▁thigh	-11.2706
▁HR	-11.2708
▁advised	-11.2712
▁amendment	-11.2714
▁attracted	-11.272
▁considerably	-11.2722
▁Qua	-11.2723
▁specified	-11.2723
▁endorse	-11.2728
▁hyp	-11.2733
▁zip	-11.2733
▁numerical	-11.274
Everyone	-11.2743
▁explode	-11.2744
▁scholar	-11.2749
▁prevention	-11.2749
▁mock	-11.2749
▁divide	-11.2754
▁gig	-11.2755
▁outrage	-11.2761
▁orientation	-11.2762
▁SP	-11.2762
▁Neither	-11.2762
▁quant	-11.2763
▁addiction	-11.2764
▁Pur	-11.2766
▁Always	-11.2766
because	-11.2766
▁doorway	-11.2767
▁collar	-11.2771
▁duties	-11.2771
▁sym	-11.2775
▁clutch	-11.2778
▁Garden	-11.2791
▁consultant	-11.2791
▁enthusiasm	-11.2798
▁Wilson	-11.2799
Besides	-11.2802
▁rape	-11.2803
▁ethic	-11.281
▁End	-11.2814
▁objection	-11.2821
▁packet	-11.2826
▁minority	-11.2831
▁Gil	-11.2835
▁reservation	-11.2836
▁Either	-11.2839
Current	-11.2841
▁alignment	-11.2849
▁Zealand	-11.2854
▁completing	-11.2866
itz	-11.2868
ggy	-11.2868
▁desktop	-11.2868
omer	-11.2869
▁PP	-11.2872
▁accelerated	-11.2873
▁width	-11.2874
store	-11.2879
version	-11.288
▁attain	-11.2881
▁neurons	-11.2884
▁lump	-11.2888
La	-11.2888
▁chop	-11.2891
▁Ger	-11.2892
▁annoying	-11.2893
▁Toronto	-11.2901
Turning	-11.2901
▁silk	-11.2901
▁query	-11.2903
▁lid	-11.2903
▁retired	-11.2904
▁cater	-11.2904
▁Energy	-11.2911
▁phenomena	-11.2923
fish	-11.2924
fur	-11.2927
▁metric	-11.2931
▁rebuild	-11.2931
▁altogether	-11.2939
▁permitted	-11.2944
▁discrimination	-11.2947
▁preliminary	-11.2947
▁institutional	-11.2955
▁trunk	-11.2962
▁suggestion	-11.2963
▁whilst	-11.2968
▁ok	-11.2969
▁hurry	-11.297
▁err	-11.297
▁Exchange	-11.2976
▁rebel	-11.2976
▁Personal	-11.2977
▁ortho	-11.2978
▁poetry	-11.2982
▁particle	-11.2983
▁Kingdom	-11.2983
▁Instagram	-11.2988
▁ceremony	-11.299
▁Stone	-11.2992
▁confirmation	-11.2993
▁marijuana	-11.2994
▁miracle	-11.2998
▁pine	-11.2999
▁startup	-11.3
▁abandon	-11.3001
▁testified	-11.3002
Meanwhile	-11.3003
▁contributor	-11.3005
▁shoe	-11.3011
▁occupation	-11.3017
▁euro	-11.3017
▁isolation	-11.3018
▁stimulate	-11.3019
▁useless	-11.3023
fold	-11.3027
depend	-11.3029
▁ego	-11.303
▁composed	-11.3031
▁CapEx	-11.3032
stein	-11.3035
▁porch	-11.3038
▁Probably	-11.3041
▁corridor	-11.3046
▁moist	-11.3048
▁fatal	-11.3053
▁dawn	-11.3055
▁Doctor	-11.306
▁fierce	-11.306
▁Brexit	-11.3064
▁prince	-11.3066
▁classified	-11.3069
▁Republic	-11.3069
▁correlated	-11.307
▁hood	-11.3071
▁Plaintiff	-11.3071
▁chrom	-11.3074
▁Pennsylvania	-11.3074
▁Maria	-11.3075
▁distributor	-11.3076
▁continent	-11.3079
▁Talk	-11.3083
▁folded	-11.3085
▁Hillary	-11.3085
▁entertain	-11.3086
▁Jay	-11.3089
▁MRI	-11.3089
▁restrain	-11.3089
know	-11.3097
Would	-11.3102
▁climbing	-11.3103
▁dual	-11.3106
▁Mel	-11.3106
mobil	-11.3111
▁accommodation	-11.3112
▁retrieve	-11.3112
▁Albert	-11.3113
▁piano	-11.3114
▁finest	-11.3115
▁idiot	-11.3117
▁participated	-11.3117
▁Point	-11.3119
▁jewelry	-11.312
▁cult	-11.3121
▁HC	-11.3123
▁copper	-11.3126
▁consultation	-11.3128
▁newsletter	-11.313
▁witnesses	-11.3131
▁sampling	-11.3134
▁immense	-11.3136
▁slope	-11.3139
▁Secretary	-11.3148
▁mainstream	-11.3149
▁tang	-11.3151
▁accompany	-11.3151
▁cage	-11.3152
▁widespread	-11.3157
▁altered	-11.3164
Ba	-11.3167
▁soften	-11.3169
▁clarify	-11.317
▁racial	-11.317
▁tray	-11.3171
script	-11.3172
this	-11.3174
▁shrink	-11.3177
▁gasp	-11.3179
▁allocate	-11.3182
▁precede	-11.3183
▁carries	-11.3193
▁evolved	-11.3193
▁HP	-11.3194
▁Pass	-11.3196
▁drawer	-11.3197
▁workplace	-11.3198
Add	-11.3201
▁cushion	-11.3209
▁Helen	-11.321
▁traction	-11.3212
▁wholesale	-11.3218
▁transformed	-11.3224
▁cooperation	-11.3228
▁evolving	-11.323
▁transcript	-11.3231
▁Financial	-11.3232
▁reluctant	-11.3232
▁Unlike	-11.3237
▁Vegas	-11.3237
▁Control	-11.3243
▁DO	-11.3244
▁Hamilton	-11.3245
▁followers	-11.3247
Was	-11.3249
▁Wil	-11.325
▁responsive	-11.3253
▁Jimmy	-11.3255
▁glimpse	-11.3255
▁technological	-11.3255
▁switched	-11.3257
▁hammer	-11.3257
▁Education	-11.326
Yeah	-11.3261
▁Evan	-11.3261
▁buffer	-11.3264
other	-11.3272
▁Ban	-11.3274
▁wounded	-11.3275
▁blessed	-11.3281
▁mall	-11.3283
▁Saudi	-11.3291
je	-11.3302
▁accomplishment	-11.3302
▁Much	-11.3303
▁Student	-11.3303
▁severity	-11.3306
▁sheep	-11.3307
▁Tour	-11.3319
▁Live	-11.3319
▁batch	-11.3323
▁processor	-11.3325
▁Media	-11.3326
▁Kelly	-11.3328
▁jealous	-11.3329
▁outlined	-11.3333
▁valley	-11.3334
▁breach	-11.3334
▁finite	-11.3338
▁worthy	-11.3345
▁geographic	-11.3346
▁lawsuit	-11.3347
▁dedication	-11.335
lessness	-11.3354
▁swap	-11.3355
▁enrich	-11.3355
Beyond	-11.3361
bury	-11.3362
▁Rachel	-11.3363
▁implied	-11.3365
▁decay	-11.3367
ude	-11.3375
▁confusing	-11.3376
▁suspicious	-11.3376
▁merger	-11.3377
stock	-11.3378
▁continually	-11.3382
▁dessert	-11.3384
cellular	-11.3386
▁penetration	-11.3387
▁reside	-11.3389
▁Anti	-11.3393
▁crown	-11.3394
▁Hong	-11.3394
lift	-11.3398
▁grandfather	-11.3399
Right	-11.34
▁nearest	-11.3408
▁enabling	-11.3412
▁fibro	-11.3417
▁regulated	-11.342
▁consolidation	-11.3423
▁churches	-11.3424
▁Atlantic	-11.3425
▁mandate	-11.3427
▁Defendant	-11.3432
▁beast	-11.3433
▁Academy	-11.344
▁Eventually	-11.3443
▁strand	-11.3445
▁tribe	-11.3445
▁Music	-11.345
▁province	-11.3451
▁hesitate	-11.3451
▁Civil	-11.3455
▁Member	-11.3457
▁haunt	-11.3462
course	-11.3463
▁breeze	-11.3466
▁fond	-11.3466
▁endure	-11.3468
clock	-11.3471
▁cab	-11.3473
▁abundance	-11.3476
▁foster	-11.348
▁slim	-11.3482
▁Iowa	-11.3482
▁Photo	-11.3486
▁mitigate	-11.3487
▁scoring	-11.349
▁distribute	-11.3492
▁Lady	-11.3494
▁demonstration	-11.3498
▁mysterious	-11.3498
▁scatter	-11.3499
▁spike	-11.3499
▁gentlemen	-11.35
▁gallery	-11.35
▁integral	-11.3502
▁generator	-11.3502
▁exclusively	-11.3506
▁utilized	-11.3508
▁lending	-11.3509
ffer	-11.3512
▁Billy	-11.3523
▁threatening	-11.3523
▁aesthetic	-11.3526
▁Afghanistan	-11.3528
▁regulate	-11.3529
▁Jake	-11.353
▁glare	-11.3535
▁poet	-11.3537
▁spouse	-11.3537
▁explicitly	-11.3537
▁swallowed	-11.3538
▁disappointment	-11.354
▁spectacular	-11.3541
▁Manchester	-11.3543
▁brake	-11.3543
▁Clark	-11.355
▁lonely	-11.3552
▁spoon	-11.3554
▁Sorry	-11.3556
▁snake	-11.3558
▁Five	-11.3562
▁DS	-11.3562
▁Really	-11.3564
Everything	-11.3564
oscopic	-11.3566
▁hazard	-11.3569
▁impairment	-11.3569
▁concentrated	-11.3569
▁countless	-11.3573
▁consensus	-11.3573
▁Yo	-11.3574
▁gravity	-11.3576
sort	-11.3576
▁capitalize	-11.3578
▁Xray	-11.358
▁surrender	-11.3584
▁polymer	-11.3587
▁wipe	-11.3591
▁fifteenth	-11.3592
▁firing	-11.3593
▁Illinois	-11.3595
▁surveillance	-11.3595
▁oldest	-11.3595
▁insane	-11.3595
▁recipient	-11.3599
▁occurrence	-11.3599
▁purely	-11.36
▁drank	-11.3606
▁weaker	-11.361
▁skeptic	-11.361
▁Children	-11.3611
▁departure	-11.3611
▁acceleration	-11.3612
▁MD	-11.3613
▁broadly	-11.3618
source	-11.3622
▁Network	-11.3623
▁appliance	-11.3628
▁sanction	-11.3628
▁iPad	-11.3634
▁Gulf	-11.3637
▁metabolism	-11.3643
Specifically	-11.3643
genic	-11.3645
▁overseas	-11.3648
▁contaminat	-11.3649
▁pH	-11.3652
▁haul	-11.3653
▁podcast	-11.3654
▁occupied	-11.3656
▁fridge	-11.3658
▁Global	-11.366
▁invisible	-11.3661
▁strictly	-11.3666
▁glue	-11.3668
▁transparency	-11.3669
▁Except	-11.3672
▁charity	-11.3676
▁Emma	-11.3682
▁underground	-11.3682
▁ML	-11.3684
▁Family	-11.3685
▁devoted	-11.3685
oxic	-11.3687
wall	-11.3688
▁Davis	-11.3694
▁dys	-11.3695
▁allegations	-11.37
▁rode	-11.3704
▁catalog	-11.3711
▁snapped	-11.3715
▁dismissed	-11.3719
▁thrive	-11.3726
▁survivor	-11.3733
▁Dark	-11.3736
▁popularity	-11.3739
responsibilities	-11.374
▁Nazi	-11.3742
▁depressed	-11.3742
▁receipt	-11.3748
▁lag	-11.3749
▁Code	-11.375
▁beaten	-11.3751
▁mentally	-11.3755
▁frustrating	-11.3757
▁shiver	-11.3757
▁intact	-11.3759
▁fatigue	-11.3759
▁Anne	-11.3766
▁limitation	-11.3766
▁Due	-11.3773
▁valuation	-11.3775
▁ethical	-11.3775
▁renal	-11.3778
▁disadvantage	-11.3782
▁automation	-11.3786
▁entertaining	-11.3788
▁BP	-11.3788
▁cleaner	-11.3789
▁Information	-11.379
▁dysfunction	-11.379
▁elevator	-11.3793
▁knit	-11.3798
▁appreciation	-11.3799
▁dragon	-11.3802
▁specify	-11.3805
▁delighted	-11.3807
▁knot	-11.3811
▁heels	-11.3814
Within	-11.3815
▁Michel	-11.3816
▁deciding	-11.3818
▁deployed	-11.3818
▁junk	-11.3822
▁insulin	-11.3822
symmetric	-11.3832
▁qualities	-11.3833
▁thrill	-11.3835
▁likelihood	-11.3837
▁screamed	-11.3839
▁Hand	-11.3844
▁pursuit	-11.3846
▁swallow	-11.3851
▁fluctuation	-11.3855
▁junior	-11.3855
▁quantitative	-11.3855
▁verse	-11.3859
▁purse	-11.3864
dynamic	-11.3865
▁shouted	-11.3868
▁Sen	-11.387
▁glory	-11.3877
▁incorporated	-11.3877
▁attachment	-11.388
▁PT	-11.3882
▁CN	-11.3885
▁attach	-11.3886
▁tossed	-11.3887
▁Oregon	-11.3888
Patients	-11.3898
▁warehouse	-11.3902
▁Miller	-11.3902
▁Store	-11.3902
Following	-11.3903
▁glucose	-11.3904
▁Dutch	-11.3904
▁salary	-11.3907
▁controversial	-11.3908
▁pixel	-11.3909
group	-11.391
▁safer	-11.392
▁halfway	-11.3926
▁sunlight	-11.3929
▁rubbed	-11.3929
▁Amendment	-11.3931
▁suburb	-11.3932
▁distraction	-11.3932
Certain	-11.3933
▁championship	-11.3935
▁Among	-11.3935
Nothing	-11.3935
▁cookie	-11.3941
▁entities	-11.3945
▁compress	-11.3948
▁referring	-11.3951
▁bankruptcy	-11.3954
▁tariff	-11.3956
▁debut	-11.3959
▁certified	-11.3965
▁divine	-11.3968
mount	-11.397
▁shallow	-11.3971
▁happily	-11.3971
▁automotive	-11.398
▁Award	-11.3981
▁accumulate	-11.3985
▁suspicion	-11.3985
▁suspension	-11.3987
▁portrait	-11.3992
▁justify	-11.3992
plex	-11.3994
burn	-11.3998
▁faculty	-11.3999
▁singer	-11.4004
▁Hawaii	-11.4005
▁Singapore	-11.4005
▁horizontal	-11.4007
Whatever	-11.4014
▁dentist	-11.4015
▁Report	-11.4018
▁Marine	-11.4019
▁hopeful	-11.402
▁aggregate	-11.4021
▁scroll	-11.4022
▁Lucy	-11.4024
▁differentiated	-11.403
▁horn	-11.403
▁crude	-11.4038
▁occasional	-11.4042
▁wiped	-11.4044
▁Overall	-11.4046
▁coding	-11.4047
product	-11.4055
▁shortage	-11.4062
▁straw	-11.4065
▁portray	-11.4065
Remember	-11.4066
▁tendency	-11.4068
▁securities	-11.4071
▁Hotel	-11.4072
▁queen	-11.4074
▁variability	-11.408
▁implies	-11.4083
▁metabolic	-11.4087
▁uncover	-11.4088
▁statue	-11.409
▁invasion	-11.4094
utter	-11.4098
▁smash	-11.4103
▁magnet	-11.4104
▁thrilled	-11.4105
▁Miami	-11.4109
▁quest	-11.4111
▁bargain	-11.4112
▁durable	-11.4112
▁hesitated	-11.4114
▁NY	-11.4116
▁computing	-11.4117
▁prevail	-11.4119
▁compensate	-11.4133
▁canvas	-11.4138
▁therapist	-11.414
▁tennis	-11.4146
▁realizing	-11.4148
▁educated	-11.4149
▁facial	-11.4149
▁tense	-11.4149
▁vest	-11.4151
▁Made	-11.4152
▁dwell	-11.416
think	-11.4162
▁theatre	-11.4164
▁Philip	-11.4167
Between	-11.4167
▁tolerate	-11.4168
▁amazed	-11.4177
▁valve	-11.4177
▁Want	-11.4185
▁devil	-11.4187
▁bloom	-11.4188
▁certification	-11.4188
▁taxi	-11.4189
▁farther	-11.4191
▁tattoo	-11.4195
▁revised	-11.4195
▁Lewis	-11.4195
▁enjoyable	-11.4199
▁Unless	-11.4199
▁Matthew	-11.4202
▁realization	-11.4203
▁locate	-11.4205
▁Medicare	-11.4207
▁unconscious	-11.4207
▁motive	-11.4208
▁Based	-11.4212
▁thermo	-11.4214
▁Usually	-11.4221
▁Pack	-11.4226
▁Que	-11.4231
▁charging	-11.4232
Nevertheless	-11.4234
▁introducing	-11.4234
▁Susan	-11.4245
▁genome	-11.4251
▁Feel	-11.4253
▁suspended	-11.4253
▁synthesis	-11.4253
▁realised	-11.4254
▁Def	-11.4257
▁welfare	-11.4258
▁proactive	-11.4261
▁Sydney	-11.4262
▁eleventh	-11.4265
▁desperately	-11.4272
▁mobility	-11.4274
▁Bear	-11.4274
Lucki	-11.4277
▁relieved	-11.4278
▁beverage	-11.4279
▁interference	-11.4279
▁Space	-11.4282
▁harmful	-11.4283
▁Museum	-11.429
▁handsome	-11.4304
▁aggressively	-11.4306
▁virtue	-11.4309
▁thrust	-11.4309
▁flee	-11.4309
▁printer	-11.432
▁Empire	-11.432
▁fabulous	-11.4327
▁enhancing	-11.433
▁scoop	-11.433
▁Journal	-11.4332
▁eighteenth	-11.4337
▁Christianity	-11.4338
▁compression	-11.4343
▁harbor	-11.4348
▁activated	-11.4354
▁paragraph	-11.4354
▁universities	-11.4356
▁drown	-11.4356
▁TB	-11.4358
▁Vol	-11.4361
▁furnish	-11.4363
▁prudent	-11.4363
▁Fund	-11.4366
▁defence	-11.4371
▁Navy	-11.4372
▁predominant	-11.4372
▁validation	-11.4373
▁embarrassed	-11.4379
▁lick	-11.4379
▁replicate	-11.4382
▁drip	-11.4384
▁bark	-11.4384
▁Para	-11.4385
▁cocktail	-11.4387
▁frightened	-11.4391
▁trajectory	-11.4393
▁Diego	-11.4398
structure	-11.4398
▁Dallas	-11.4405
▁specialized	-11.4413
▁antibodies	-11.4414
▁Bull	-11.4416
▁curiosity	-11.4417
▁faithful	-11.4417
▁flavour	-11.4419
▁electrode	-11.4419
▁disability	-11.442
▁niche	-11.4422
▁neural	-11.4422
▁Chelsea	-11.4424
Plus	-11.4435
▁believing	-11.4436
▁aroma	-11.4437
▁swift	-11.4438
▁whistle	-11.4438
▁Yu	-11.4438
▁persistent	-11.4438
Anyway	-11.4438
▁Avenue	-11.444
▁Greece	-11.444
▁scattered	-11.4451
▁Engine	-11.4452
▁tricky	-11.4455
▁tutorial	-11.4457
▁Often	-11.4465
around	-11.4466
▁Easter	-11.4468
▁swung	-11.4469
▁Sanders	-11.4469
▁Week	-11.4475
scale	-11.4477
▁humble	-11.4485
▁RE	-11.4491
▁Natural	-11.4494
▁Moon	-11.4495
▁Order	-11.4496
▁eternal	-11.4497
▁corruption	-11.4499
Several	-11.45
▁shipped	-11.4506
▁eighties	-11.4506
▁sibling	-11.4507
bone	-11.4509
▁CV	-11.4511
▁laundry	-11.4519
ession	-11.4519
▁Lincoln	-11.4521
▁appetite	-11.4523
▁libraries	-11.4523
▁Excel	-11.4525
▁Emily	-11.4527
▁harass	-11.4531
▁Author	-11.4531
▁Bowl	-11.4533
▁Farm	-11.4535
▁skull	-11.4535
▁conceal	-11.4535
▁recommendation	-11.4538
▁arrange	-11.4541
Ultimately	-11.4542
▁chemistry	-11.455
▁leveraging	-11.455
▁fasci	-11.4557
▁recurring	-11.4559
▁geo	-11.456
▁interactive	-11.4564
▁Captain	-11.4565
▁dumpster	-11.4566
Obviously	-11.4569
▁dislike	-11.4571
▁revision	-11.4571
▁wealthy	-11.4575
▁Steven	-11.4583
▁terrific	-11.4583
▁Following	-11.4584
▁stride	-11.4589
▁realise	-11.4596
▁specimen	-11.4598
▁Everybody	-11.4601
▁Investor	-11.4614
▁aunt	-11.4619
▁Ukraine	-11.4619
▁overwhelmed	-11.4622
▁Thr	-11.4623
▁manually	-11.4623
▁Square	-11.4624
▁Beth	-11.4625
▁archive	-11.4629
▁swept	-11.4631
▁goodbye	-11.4632
▁peripheral	-11.4636
making	-11.4643
▁Night	-11.4643
▁Community	-11.4643
▁Atlanta	-11.4646
▁soccer	-11.4646
▁replacing	-11.4653
▁stakeholders	-11.4655
▁remodel	-11.4658
▁technician	-11.4658
▁passive	-11.4659
▁Beck	-11.4659
Part	-11.4663
▁Brother	-11.4669
▁Capital	-11.467
▁persuade	-11.4675
plain	-11.4676
▁Full	-11.4678
▁pho	-11.4678
▁garbage	-11.468
▁Common	-11.468
▁describing	-11.4681
▁Opera	-11.4683
▁mindful	-11.4687
▁anonymous	-11.4687
▁instructor	-11.4693
▁Disc	-11.4694
▁tolerance	-11.4694
▁Grace	-11.4695
▁absurd	-11.4699
▁splash	-11.4703
▁Stay	-11.4704
▁pickup	-11.4706
▁lazy	-11.4706
▁chef	-11.4709
▁Scottish	-11.4709
▁viable	-11.4711
▁MB	-11.4711
▁stove	-11.4716
▁BBC	-11.4723
▁GB	-11.4729
▁Java	-11.4737
▁hurricane	-11.4738
▁Almost	-11.4739
▁stimulation	-11.4748
▁absorption	-11.475
▁coupling	-11.4755
▁Columbia	-11.4755
▁wreck	-11.4755
▁Amy	-11.4756
▁MT	-11.4761
cott	-11.4762
ectomy	-11.4765
nstru	-11.4768
▁scare	-11.4773
▁font	-11.4777
▁Premier	-11.4784
▁Line	-11.4788
▁midnight	-11.4789
▁LC	-11.479
▁athletic	-11.4794
▁worries	-11.4806
▁romance	-11.4806
▁healthier	-11.4807
▁utilizing	-11.4811
▁resistant	-11.4812
▁Sign	-11.4813
▁necessity	-11.4819
▁spontaneous	-11.4819
▁folk	-11.4822
▁nineties	-11.4827
▁Division	-11.4828
▁moisture	-11.4829
▁batter	-11.483
▁assign	-11.483
▁pencil	-11.4831
▁resemble	-11.4832
▁disposal	-11.4833
▁Cru	-11.4835
▁Securities	-11.4836
▁Conference	-11.4838
▁Ol	-11.4845
posed	-11.4848
▁drone	-11.4849
▁commence	-11.4854
▁affection	-11.4855
▁Kansas	-11.4855
▁Morgan	-11.4857
▁Minnesota	-11.4858
▁Summer	-11.4858
▁varies	-11.4859
▁invasive	-11.486
hn	-11.4861
▁lever	-11.4862
▁racist	-11.4865
▁footage	-11.4868
▁symptom	-11.4869
interest	-11.4871
▁VA	-11.4876
▁heritage	-11.4878
▁regimen	-11.4884
▁vintage	-11.4888
▁arguing	-11.489
▁automated	-11.4893
▁regain	-11.4893
John	-11.4893
▁coupon	-11.4895
▁obey	-11.4899
▁diameter	-11.49
▁resident	-11.4902
▁Small	-11.4903
▁Labor	-11.491
▁Jan	-11.4911
▁Cameron	-11.4915
▁methodology	-11.4919
viv	-11.4921
▁initiated	-11.4922
▁updating	-11.4929
▁thickness	-11.493
▁onset	-11.4931
▁solving	-11.4931
▁batteries	-11.4932
▁tomatoes	-11.4933
▁quilt	-11.4935
▁beloved	-11.4937
▁rocket	-11.4941
▁midst	-11.4943
▁synergies	-11.4945
▁circum	-11.4957
▁Cuba	-11.4958
▁biology	-11.4958
▁illusion	-11.4962
▁rigid	-11.4962
▁genuinely	-11.4963
▁eastern	-11.4963
▁reproduce	-11.4967
▁stroll	-11.4967
▁foam	-11.497
▁secretary	-11.4971
Very	-11.4979
▁vibrant	-11.4979
▁transit	-11.4982
▁democratic	-11.4984
▁Way	-11.4994
▁vampire	-11.5004
▁Howard	-11.5005
▁depart	-11.5005
▁detective	-11.5007
▁temporal	-11.5015
plasm	-11.5015
▁kingdom	-11.5017
▁antibody	-11.502
▁utter	-11.5021
▁merchandise	-11.5029
▁prosecutor	-11.5029
▁serial	-11.5031
▁genius	-11.5032
▁balloon	-11.5047
▁terrified	-11.5047
▁masses	-11.5054
▁entries	-11.506
▁discontinu	-11.5068
▁Philadelphia	-11.5075
▁inhabit	-11.5082
▁warrior	-11.5082
▁disabled	-11.5083
stead	-11.5085
▁easiest	-11.509
▁fog	-11.509
▁proliferation	-11.5092
▁sacred	-11.5092
▁ministry	-11.5092
▁cope	-11.5095
Due	-11.5095
▁underway	-11.5096
▁Charlotte	-11.5097
▁encrypt	-11.51
▁coefficient	-11.5101
▁simplicity	-11.5102
▁personalized	-11.5104
▁Multi	-11.5104
▁backyard	-11.5105
▁helmet	-11.5115
▁enthusiastic	-11.5119
▁premier	-11.512
▁nasty	-11.5121
▁differentiate	-11.5121
▁medal	-11.5122
▁Laura	-11.5123
▁kilo	-11.5124
▁tragedy	-11.5125
▁coconut	-11.5125
▁Section	-11.5127
▁dug	-11.5128
▁Arthur	-11.513
▁apparatus	-11.5133
Cha	-11.5138
▁supplied	-11.514
▁diagram	-11.5145
▁selfish	-11.5147
▁custody	-11.5156
▁illustration	-11.5156
▁homework	-11.5162
▁UV	-11.5164
▁hunger	-11.5165
▁Major	-11.5166
▁litigation	-11.5168
▁compatible	-11.5171
trans	-11.5172
▁pathogen	-11.5172
▁Fun	-11.5173
▁artistic	-11.5175
▁foolish	-11.5176
▁seventies	-11.5182
▁quarterback	-11.5182
▁sniff	-11.5184
▁optional	-11.5185
▁stepping	-11.5191
▁simplify	-11.5194
▁quantities	-11.5196
▁pivot	-11.5199
▁animation	-11.5202
Nonetheless	-11.5204
▁seventeenth	-11.5205
▁municipal	-11.5212
▁inspiring	-11.5212
▁Fortunately	-11.5215
▁backpack	-11.5216
▁emit	-11.5219
▁intuitive	-11.5219
▁RP	-11.522
▁transcription	-11.5221
▁Centre	-11.5222
▁marginal	-11.5223
▁mathematical	-11.5224
▁referral	-11.5233
▁hover	-11.5236
▁analytical	-11.5237
▁hatred	-11.5238
▁tobacco	-11.5242
▁deemed	-11.5243
▁unhappy	-11.5247
ku	-11.5249
▁intermediate	-11.5253
Rather	-11.5253
▁armor	-11.5256
US	-11.5261
▁discard	-11.5263
factor	-11.5281
▁exhibition	-11.5282
▁flux	-11.5283
▁dictate	-11.5289
▁marine	-11.529
▁denial	-11.529
▁FDA	-11.5304
▁sack	-11.5305
▁notebook	-11.5308
▁refrigerator	-11.5312
▁utterly	-11.5313
▁happier	-11.5314
Out	-11.5319
▁Help	-11.532
▁bass	-11.5326
▁corrupt	-11.5328
dress	-11.5331
▁scrub	-11.5333
▁unemployment	-11.5335
▁Sports	-11.5336
▁URL	-11.534
▁downstairs	-11.5343
▁underwent	-11.5343
▁triumph	-11.5345
▁cricket	-11.5351
▁rebound	-11.5353
▁prejudice	-11.5358
▁cyber	-11.5364
▁connectivity	-11.5365
▁bail	-11.5366
▁Blood	-11.5369
▁Room	-11.537
▁investigating	-11.5371
Unlike	-11.5375
Book	-11.5378
▁Imagine	-11.5378
▁plugin	-11.5383
▁Euro	-11.5385
Great	-11.5385
▁Kris	-11.5386
▁scholarship	-11.5388
▁castle	-11.5389
▁Ocean	-11.5392
▁Leave	-11.5398
▁respiratory	-11.54
▁UC	-11.5403
▁postoperative	-11.5404
▁alternate	-11.5406
▁Buck	-11.5407
▁hurried	-11.5413
▁vascular	-11.5414
▁ecommerce	-11.5418
▁cliff	-11.5423
▁artwork	-11.5425
Important	-11.5434
▁thirtieth	-11.5444
▁furious	-11.5446
▁twelfth	-11.5447
▁pending	-11.5447
▁sidewalk	-11.5449
▁intensive	-11.545
▁creator	-11.545
▁seamless	-11.5455
▁banned	-11.5462
▁groan	-11.5468
▁verbal	-11.5472
▁explicit	-11.5478
▁doctrine	-11.5483
▁heroes	-11.5486
▁travelling	-11.5488
▁Julie	-11.549
▁porn	-11.5499
▁ambitious	-11.5515
▁therapies	-11.5518
▁duplicate	-11.5523
▁mindset	-11.5524
▁superb	-11.5524
▁predictable	-11.5525
Hence	-11.5525
▁ladder	-11.5531
case	-11.5532
when	-11.5535
▁terribly	-11.5539
▁breakdown	-11.5539
▁thunder	-11.554
Later	-11.5541
▁stance	-11.5544
▁Tele	-11.5544
▁Patrick	-11.5545
▁despair	-11.5547
▁analyse	-11.5548
▁helicopter	-11.5549
▁administrator	-11.5552
▁cottage	-11.5552
▁DVD	-11.5555
▁vow	-11.5558
▁Nik	-11.5559
▁witch	-11.556
▁convincing	-11.556
▁anniversary	-11.5563
▁queue	-11.5563
▁Gary	-11.5564
▁merge	-11.5566
▁feather	-11.5568
▁raid	-11.5571
▁axis	-11.5573
▁consuming	-11.5576
Alternatively	-11.5578
▁steadily	-11.5581
▁shelves	-11.5581
▁portal	-11.5594
▁memorable	-11.5602
▁inhibition	-11.5604
▁declare	-11.5605
▁questionnaire	-11.5608
▁Josh	-11.5613
▁NBA	-11.5613
▁Wait	-11.5613
▁derivative	-11.5616
▁assurance	-11.5616
▁quantify	-11.5617
▁sphere	-11.5618
▁stylish	-11.5621
▁sixteenth	-11.5623
▁scarce	-11.5624
▁simulate	-11.5627
▁Anyone	-11.5633
▁Wisconsin	-11.564
▁booth	-11.5646
▁cinema	-11.5649
▁Austin	-11.565
▁Hopefully	-11.5651
▁fourteenth	-11.5652
▁applicant	-11.5658
▁replay	-11.5663
▁arriving	-11.5664
▁triple	-11.5667
▁ME	-11.5678
▁Short	-11.5678
▁Girl	-11.5683
▁nonprofit	-11.5685
▁categor	-11.5688
mouth	-11.5691
▁Detroit	-11.5696
Different	-11.5707
▁rude	-11.5707
▁pollution	-11.571
Something	-11.571
▁vegetable	-11.5722
▁renewable	-11.5723
▁Golden	-11.5729
▁rally	-11.573
▁workforce	-11.5731
▁patron	-11.5736
▁blown	-11.5737
keeper	-11.5741
▁cardiovascular	-11.5741
▁originate	-11.5744
▁contemplate	-11.5747
▁conservation	-11.5747
▁Thanksgiving	-11.5747
Could	-11.5748
▁void	-11.5757
▁binary	-11.5757
▁aluminum	-11.5758
▁configure	-11.5758
▁qualification	-11.5758
▁boast	-11.5758
▁Johnny	-11.576
▁sixties	-11.5762
▁yearoveryear	-11.5766
▁Series	-11.5768
▁sync	-11.577
storm	-11.5773
▁Shop	-11.5773
▁retire	-11.5776
▁practicing	-11.5776
▁manipulate	-11.5782
Three	-11.5786
▁underwriting	-11.5791
flat	-11.5791
▁rag	-11.5793
▁shiny	-11.5793
▁gem	-11.5796
▁spinning	-11.5799
▁flex	-11.5804
escence	-11.5805
▁expire	-11.5805
▁discomfort	-11.5806
▁confidential	-11.5806
▁Sean	-11.5806
▁verdict	-11.5809
▁Standard	-11.5809
▁observer	-11.5812
▁contra	-11.5813
▁Stop	-11.5814
▁Liverpool	-11.5814
▁practitioner	-11.5814
▁variance	-11.5814
▁interfere	-11.5826
▁Carter	-11.5827
▁marvel	-11.5828
▁magnificent	-11.5831
▁distinctive	-11.5836
▁sadness	-11.5837
▁Drive	-11.5838
▁crunch	-11.5839
▁lounge	-11.5843
▁designated	-11.5848
Interestingly	-11.5852
▁spur	-11.5855
▁synthetic	-11.5866
▁Fran	-11.5869
▁Nice	-11.587
▁Brook	-11.587
▁credibility	-11.5871
▁jewel	-11.5875
▁fitted	-11.5878
▁dependence	-11.5888
▁equality	-11.5888
▁definitive	-11.5891
▁dissolve	-11.5893
▁irrelevant	-11.5896
▁embryo	-11.5899
▁chemotherapy	-11.5902
▁labour	-11.5902
▁leasing	-11.5907
suit	-11.5908
▁portable	-11.5912
Additional	-11.5912
▁Wolf	-11.5917
step	-11.5925
▁Creek	-11.5926
▁Seven	-11.5928
▁Bruce	-11.5942
▁wheat	-11.5943
▁bulb	-11.5945
Should	-11.595
▁tide	-11.5954
develop	-11.5961
▁calcium	-11.5962
▁vivo	-11.5962
▁normalized	-11.5963
▁exempt	-11.5965
▁crust	-11.5973
▁collision	-11.5973
▁Eagle	-11.5976
▁Danny	-11.5983
▁Massachusetts	-11.5984
▁honour	-11.5987
▁Alaska	-11.6001
▁rejection	-11.6001
▁Lisa	-11.6001
▁miserable	-11.6003
▁bacterial	-11.6008
▁hydr	-11.6009
▁frequencies	-11.6009
▁digging	-11.601
▁Clean	-11.6012
▁civilization	-11.6014
▁approve	-11.6016
▁ashamed	-11.6021
▁hiking	-11.6027
▁agricultural	-11.6034
▁unchanged	-11.6042
▁Romney	-11.6042
▁competitor	-11.6043
▁wildlife	-11.6051
ophil	-11.6052
▁repurchase	-11.6053
▁bruise	-11.6054
wide	-11.6058
▁wax	-11.606
Read	-11.6061
value	-11.6076
▁recruitment	-11.6077
screen	-11.6077
▁qualitative	-11.6078
▁ballot	-11.6079
▁streak	-11.6081
▁accelerating	-11.6087
▁spun	-11.6087
ogenic	-11.6089
Honestly	-11.6089
▁posture	-11.6093
▁commerce	-11.6095
▁authorized	-11.6098
▁Burn	-11.6099
▁freight	-11.6101
▁activate	-11.6105
▁patrol	-11.6106
▁Championship	-11.6107
▁secular	-11.6111
▁Administration	-11.6114
▁deviation	-11.6117
▁Ruth	-11.612
▁obesity	-11.6123
▁Flor	-11.6129
▁Dick	-11.613
▁renovation	-11.6137
▁assortment	-11.614
ello	-11.6145
▁Silver	-11.6148
▁exterior	-11.6148
▁pinch	-11.6149
▁scanning	-11.615
▁featuring	-11.6154
▁relevance	-11.6154
Chris	-11.6155
▁pistol	-11.6156
▁Lots	-11.6157
▁trivial	-11.6168
▁Gordon	-11.6171
▁View	-11.6175
▁vitro	-11.6177
▁volatile	-11.6179
rrh	-11.6184
▁Listen	-11.6188
▁Heart	-11.6188
▁fastest	-11.6191
logical	-11.6204
▁revelation	-11.6204
▁residual	-11.6218
▁pork	-11.6219
▁estimation	-11.6221
▁insufficient	-11.6221
▁coworker	-11.6221
ogram	-11.6222
▁conjunction	-11.6224
▁lipid	-11.6224
▁bacon	-11.6227
▁dye	-11.6237
▁wrinkle	-11.6241
▁characterize	-11.6243
▁navigation	-11.6244
▁grape	-11.6245
▁bride	-11.6245
ieving	-11.6245
▁socks	-11.6251
▁missile	-11.6252
▁inquiry	-11.6253
▁jack	-11.6254
▁pseudo	-11.6255
▁debris	-11.6258
▁broaden	-11.6261
▁cement	-11.6267
▁replied	-11.6269
▁sensible	-11.6272
▁Lion	-11.6275
▁exert	-11.6276
▁Thor	-11.6276
▁attendance	-11.6277
▁bru	-11.6277
▁metaphor	-11.6281
▁mug	-11.6288
▁lime	-11.6304
▁numb	-11.6308
▁vegan	-11.6309
▁MR	-11.6311
wick	-11.6313
▁Alabama	-11.6318
▁relentless	-11.6318
▁monkey	-11.6318
▁driveway	-11.6319
▁presume	-11.6321
Among	-11.6323
▁GDP	-11.6324
▁singular	-11.6327
▁automobile	-11.6332
▁deferred	-11.6332
▁Jamie	-11.6335
▁Glen	-11.6335
▁circular	-11.6338
▁CPU	-11.6339
▁expose	-11.6343
▁dietary	-11.6348
▁gratitude	-11.6352
▁banana	-11.6353
▁extraction	-11.6355
▁stirring	-11.6357
▁benchmark	-11.6359
▁mitochondria	-11.6361
▁slammed	-11.6361
▁educate	-11.6361
▁Simply	-11.6363
▁unsure	-11.6364
▁Better	-11.6364
▁Oklahoma	-11.6369
▁Joan	-11.637
▁legislative	-11.6372
▁sovereign	-11.6372
▁puff	-11.6376
▁Gabriel	-11.6378
▁physiological	-11.6381
▁relaxation	-11.6381
▁popped	-11.6385
▁Sara	-11.639
▁Field	-11.6392
▁PDF	-11.6393
▁showcase	-11.6396
▁compartment	-11.6401
▁Wales	-11.6401
▁thirteenth	-11.6403
▁mapping	-11.641
Think	-11.6411
▁GOP	-11.6412
▁Aaron	-11.6419
▁Penn	-11.6423
▁tragic	-11.6433
▁banner	-11.6434
▁claw	-11.6435
▁intrinsic	-11.6438
▁geographical	-11.6445
▁anticipation	-11.645
▁Rule	-11.6451
▁semiconductor	-11.6456
▁swirl	-11.6461
▁temporarily	-11.6461
▁formulation	-11.6462
▁respectful	-11.6463
writer	-11.6464
proof	-11.6465
▁colorful	-11.6466
▁frost	-11.6467
▁lion	-11.6468
▁empire	-11.647
▁Revolution	-11.6473
▁antioxidant	-11.6476
▁zombie	-11.6476
Find	-11.6477
▁Price	-11.6483
▁stalk	-11.6486
▁scandal	-11.6488
▁Manhattan	-11.6493
▁devastating	-11.6493
▁participant	-11.6498
▁validity	-11.6506
▁tack	-11.6506
▁kilometers	-11.6508
about	-11.6511
▁Denver	-11.6511
▁Lou	-11.6516
▁racism	-11.6525
▁threaten	-11.653
▁patio	-11.6533
▁declining	-11.6534
▁tasty	-11.6535
hawk	-11.6536
▁erect	-11.6536
▁seizure	-11.654
▁summon	-11.654
cca	-11.6548
▁stadium	-11.6549
▁withdrawal	-11.655
▁amplitude	-11.6552
▁Currently	-11.6552
▁drastic	-11.6554
Work	-11.6555
▁rigorous	-11.6557
▁conspiracy	-11.6566
▁derive	-11.6568
▁stressful	-11.6569
▁headquarters	-11.6572
▁Cooper	-11.6572
▁Jean	-11.6573
▁gossip	-11.6578
▁detector	-11.6586
▁flare	-11.6588
▁Berlin	-11.6593
▁ribbon	-11.6599
▁flap	-11.6599
▁Nathan	-11.66
▁abundant	-11.6601
▁curated	-11.6604
▁subset	-11.6605
▁Jerry	-11.6615
▁Sweden	-11.6619
▁perceive	-11.6623
▁welcoming	-11.6625
▁Treat	-11.6628
▁Arabia	-11.6629
▁autumn	-11.6637
▁sprinkle	-11.6637
▁Pete	-11.6638
▁Change	-11.6639
▁lend	-11.6642
▁combining	-11.6648
▁tapped	-11.6649
▁comparative	-11.6651
▁amino	-11.6653
▁discourage	-11.666
▁kidnap	-11.666
▁diagnose	-11.6665
▁epic	-11.6666
▁Tennessee	-11.6672
pack	-11.6673
▁pharmaceutical	-11.6675
▁scramble	-11.6681
▁CNN	-11.6681
▁Certainly	-11.669
▁homeowner	-11.6693
▁intersection	-11.6699
▁tropical	-11.6699
▁Judge	-11.67
▁Depend	-11.6706
▁greed	-11.6706
bacter	-11.6708
▁Morris	-11.6715
▁seasonality	-11.6719
▁Syrian	-11.6721
▁Review	-11.6723
▁causal	-11.6723
Previous	-11.6724
▁arbitrary	-11.6725
▁tweak	-11.6725
▁cannabis	-11.6728
▁churn	-11.6729
▁freezing	-11.6729
▁shining	-11.6729
▁adaptation	-11.6741
▁ginger	-11.6742
▁Death	-11.6743
▁curriculum	-11.6746
▁nonsense	-11.6746
▁bicycle	-11.6758
▁Palm	-11.6758
▁Cloud	-11.6761
▁blogging	-11.6764
▁mercy	-11.6764
lving	-11.6765
▁frown	-11.6768
▁demonstrating	-11.677
▁residue	-11.677
▁spiral	-11.677
▁pillar	-11.6771
▁problematic	-11.6772
▁habitat	-11.6774
▁pulmonary	-11.6776
▁Linux	-11.6776
▁agriculture	-11.6779
▁Whit	-11.678
▁whatsoever	-11.6791
▁steak	-11.6794
▁hugged	-11.6798
▁revolve	-11.6799
▁approximation	-11.6809
▁rhetoric	-11.6809
▁mac	-11.681
▁architect	-11.6811
▁vibration	-11.6812
▁sustainability	-11.6814
▁worm	-11.6815
▁parliament	-11.682
▁shudder	-11.6821
▁literary	-11.6821
▁burger	-11.6836
▁unpleasant	-11.6836
▁Dream	-11.6854
▁relied	-11.6855
▁antenna	-11.6857
▁Hitler	-11.686
▁wool	-11.6863
▁fireplace	-11.6864
▁restart	-11.6868
▁slap	-11.6869
▁Egyptian	-11.6878
▁Moscow	-11.6881
▁Manager	-11.6881
▁sunny	-11.6884
foot	-11.689
▁prescribed	-11.6893
▁GPS	-11.6893
▁alliance	-11.6897
▁Write	-11.6898
▁Anthony	-11.6899
▁turnover	-11.6903
▁Development	-11.6908
▁cache	-11.6908
▁Express	-11.6908
▁Moore	-11.6916
▁unfortunate	-11.6918
▁inevitably	-11.692
▁penetrate	-11.692
Start	-11.6923
▁invade	-11.6924
▁ignoring	-11.6926
▁cartoon	-11.6927
▁hockey	-11.6932
▁speculation	-11.6934
▁recession	-11.6939
▁Blake	-11.6944
▁restoration	-11.6948
▁litter	-11.6955
▁artery	-11.6957
Consider	-11.6959
▁escort	-11.696
▁vanilla	-11.6964
▁Pick	-11.6964
▁Poland	-11.6972
▁antigen	-11.6975
▁osteo	-11.6977
▁algebra	-11.6978
▁defining	-11.6978
▁slavery	-11.6981
▁dairy	-11.6981
▁conquer	-11.6984
▁governance	-11.6985
▁computational	-11.6986
▁mandatory	-11.6987
▁Eddie	-11.6992
▁Winter	-11.6993
▁HTML	-11.6993
▁Living	-11.6994
▁Left	-11.6995
▁Craig	-11.6996
▁nevertheless	-11.6996
▁Travel	-11.7001
▁relieve	-11.7001
disciplinary	-11.7003
▁Contact	-11.7003
▁oak	-11.7003
ancies	-11.7003
▁terrorism	-11.7006
▁Studio	-11.7015
▁sunset	-11.7017
▁yo	-11.7024
▁Getting	-11.7028
▁excluding	-11.7042
▁recycling	-11.7042
▁constructive	-11.7044
▁scam	-11.7045
▁discern	-11.7045
phon	-11.7045
▁teenage	-11.7047
▁informative	-11.7047
▁potent	-11.7048
▁Technology	-11.7048
▁potato	-11.7049
▁paw	-11.7051
▁accumulation	-11.7051
▁Step	-11.7053
▁endeavor	-11.7055
▁peptide	-11.7055
▁hatch	-11.7057
▁blush	-11.7064
▁Digital	-11.7067
▁passport	-11.7068
▁Rich	-11.7068
▁Uncle	-11.7071
▁flies	-11.7072
▁taxpayer	-11.7073
▁psychology	-11.7073
▁JavaScript	-11.7079
▁gambling	-11.708
▁Steel	-11.7087
▁foresee	-11.7088
▁supervisor	-11.7088
▁ingredient	-11.7093
▁ripped	-11.7095
▁Clinic	-11.7097
▁indulge	-11.7101
▁Collect	-11.7108
▁advertisement	-11.7113
▁cattle	-11.7115
▁turkey	-11.7116
▁lamb	-11.7116
▁disposition	-11.7119
▁licensing	-11.7119
▁Larry	-11.7123
▁elastic	-11.7125
▁societies	-11.7129
▁visa	-11.7134
▁immunity	-11.7135
▁concession	-11.7141
▁Tommy	-11.7153
▁Similarly	-11.716
▁Halloween	-11.7163
▁conscience	-11.7169
▁Smart	-11.7169
▁Tower	-11.717
▁chasing	-11.717
▁versatile	-11.7175
▁induction	-11.718
▁Library	-11.7181
▁enrollment	-11.7181
▁Nigeria	-11.7188
▁yeast	-11.7191
▁motorcycle	-11.7191
▁nonetheless	-11.7197
▁proximity	-11.72
▁Mount	-11.72
▁Enjoy	-11.7203
▁obscure	-11.7203
Back	-11.7204
▁compose	-11.7219
Until	-11.7225
▁diligent	-11.7228
blast	-11.7231
▁isolate	-11.7234
▁uncommon	-11.7237
▁Circuit	-11.7241
▁rotate	-11.7243
▁empirical	-11.7244
Har	-11.725
▁Claire	-11.725
▁Tax	-11.7252
▁circulation	-11.7256
code	-11.7257
▁decorated	-11.7258
▁Warren	-11.7259
Check	-11.7259
▁discrete	-11.7259
vocation	-11.7262
▁accountability	-11.7263
▁mimic	-11.7274
▁elder	-11.7279
▁plague	-11.7281
function	-11.7284
▁browse	-11.7286
▁Select	-11.7294
▁varieties	-11.7294
▁Iranian	-11.7296
▁symmetry	-11.7297
▁Jeremy	-11.73
▁assembled	-11.7303
▁pronounced	-11.7303
▁gradient	-11.7303
▁augment	-11.7304
▁cholesterol	-11.7306
▁Kennedy	-11.7306
▁encouragement	-11.7312
▁hollow	-11.7316
▁peek	-11.7318
Actually	-11.7319
▁controversy	-11.7319
▁permalink	-11.7319
▁Nature	-11.732
▁Annie	-11.7323
▁supermarket	-11.7324
▁Victor	-11.7328
Third	-11.7332
▁tee	-11.7334
▁inviting	-11.7335
▁Model	-11.7336
▁dorm	-11.7339
▁retrospective	-11.7344
▁hydrogen	-11.7347
▁maturity	-11.7347
▁reconstruction	-11.7349
▁feasible	-11.7351
▁Figure	-11.7351
▁manifestation	-11.7352
▁Jerusalem	-11.7357
▁proprietary	-11.736
▁Spec	-11.7361
▁asthma	-11.7363
▁Hannah	-11.7363
▁footsteps	-11.7363
ika	-11.7364
▁peanut	-11.7373
▁fame	-11.7375
▁radar	-11.7379
▁judicial	-11.7382
▁monument	-11.7382
▁Daily	-11.7385
▁shoved	-11.7389
▁unprecedented	-11.7395
▁palace	-11.74
▁twenties	-11.7401
▁surround	-11.7407
▁Beijing	-11.7408
written	-11.7408
▁proving	-11.7408
▁Snow	-11.7411
▁Aunt	-11.7417
▁orchestra	-11.7417
▁leisure	-11.7427
▁Lock	-11.7434
▁inclined	-11.744
▁examining	-11.7453
▁catalyst	-11.7456
▁Local	-11.7456
▁Alexander	-11.7459
▁conceive	-11.7462
Normally	-11.7463
▁adolescent	-11.7465
▁wolf	-11.7465
▁Private	-11.7472
▁elephant	-11.7472
zen	-11.7478
▁Conservative	-11.7478
▁Solutions	-11.7478
▁waking	-11.7478
▁forgiveness	-11.748
▁clone	-11.7483
▁Wayne	-11.7487
▁CIA	-11.7488
▁roster	-11.749
▁Indonesia	-11.7491
▁imperative	-11.7491
▁cardio	-11.7492
▁Duke	-11.7494
▁Staff	-11.7498
▁scaling	-11.7501
given	-11.7506
▁stunned	-11.751
▁exotic	-11.7512
▁degradation	-11.7513
▁Missouri	-11.752
▁graft	-11.7524
▁decreasing	-11.7526
▁Anything	-11.7526
▁spacious	-11.753
▁collaborative	-11.7533
▁CBD	-11.7533
▁economies	-11.7542
▁Connect	-11.7547
ulu	-11.7549
▁dart	-11.7562
Time	-11.7564
▁foul	-11.7565
▁mourn	-11.7572
▁Bryan	-11.7576
▁editorial	-11.7577
▁Trade	-11.7579
▁airplane	-11.7584
▁geometry	-11.7591
▁prolonged	-11.7591
▁releasing	-11.7597
▁Together	-11.76
▁choke	-11.7603
▁stool	-11.7604
▁spider	-11.7604
▁riot	-11.7615
▁celebrating	-11.7617
▁adore	-11.7623
▁galaxy	-11.7626
▁hobby	-11.7626
▁skate	-11.7632
▁operative	-11.7632
smith	-11.7636
▁backdrop	-11.7636
▁reimbursement	-11.7638
▁remedy	-11.764
▁analyzing	-11.7643
▁predictive	-11.7646
▁Guide	-11.7652
▁Kyle	-11.7652
▁Hawk	-11.7654
▁vivid	-11.7666
▁Fast	-11.7668
▁articulate	-11.7669
nitially	-11.7672
▁pledge	-11.7672
▁explosive	-11.7675
▁dignity	-11.7679
▁flourish	-11.7682
▁foremost	-11.7682
▁recognizing	-11.7685
▁urine	-11.7688
▁artifact	-11.7688
▁statutory	-11.7692
▁stellar	-11.7695
▁albeit	-11.7698
▁nonlinear	-11.7705
▁Monte	-11.7706
▁communicating	-11.7708
▁aisle	-11.771
▁Margaret	-11.7711
▁marble	-11.7712
▁envision	-11.7715
▁accusation	-11.7718
▁acquiring	-11.7718
▁Policy	-11.7721
▁Stock	-11.7723
▁Festival	-11.7724
▁vomit	-11.7724
shift	-11.7729
▁spectral	-11.773
▁trademark	-11.7731
▁prosecution	-11.7731
▁Marcus	-11.7737
▁Must	-11.7741
▁conceptual	-11.7745
▁delegate	-11.7751
▁robe	-11.7753
▁basin	-11.7762
▁Deep	-11.7768
▁unlimited	-11.7771
giving	-11.7771
▁diversified	-11.7774
▁impulse	-11.7774
▁Finn	-11.7775
▁scout	-11.7776
▁fragile	-11.7777
▁terrain	-11.7777
▁Governor	-11.778
▁lightweight	-11.7781
including	-11.7782
▁fossil	-11.7784
▁Basically	-11.7787
▁Below	-11.7796
▁inexpensive	-11.7804
▁fixture	-11.7804
▁Portland	-11.7806
▁Hindu	-11.7807
writing	-11.7813
▁firearm	-11.7814
▁Jonathan	-11.782
▁Kentucky	-11.782
▁Russell	-11.782
▁ensu	-11.7831
▁microwave	-11.7833
▁exponential	-11.7837
▁groom	-11.7845
▁scanned	-11.7846
▁earliest	-11.7847
▁Search	-11.7849
▁gloss	-11.785
▁cosmetic	-11.7853
▁equilibrium	-11.7857
▁enlighten	-11.787
▁opera	-11.7874
▁bizarre	-11.7877
▁clench	-11.7877
▁sympathy	-11.7883
▁cycling	-11.7887
▁WordPress	-11.789
▁carriage	-11.789
▁cyst	-11.789
▁Record	-11.7893
Ladies	-11.7896
▁invented	-11.7897
▁fifties	-11.7897
▁phenotype	-11.79
▁Access	-11.7903
▁computation	-11.7905
▁Insurance	-11.7907
Regarding	-11.791
▁initiate	-11.7911
▁shrug	-11.7913
▁metallic	-11.792
▁scientist	-11.792
bank	-11.7921
▁senator	-11.7924
▁Baby	-11.7925
▁OEM	-11.7937
ncluding	-11.7939
▁Oxford	-11.794
▁assassin	-11.7944
▁Netflix	-11.7947
▁Outside	-11.795
▁Maryland	-11.7959
▁glorious	-11.7964
▁Maggie	-11.7964
▁flipped	-11.7969
▁Senator	-11.797
▁Remove	-11.7971
▁cultivate	-11.7974
▁optimism	-11.7977
▁inadequate	-11.7981
▁reinvest	-11.7981
▁Direct	-11.7983
▁centimeters	-11.7984
▁Mississippi	-11.7991
▁tangible	-11.7995
▁composite	-11.7997
▁Austria	-11.7997
▁pediatric	-11.8004
▁impaired	-11.8008
▁underestimate	-11.8014
▁transmitted	-11.8019
▁ignorance	-11.8021
▁Season	-11.8024
▁acres	-11.8027
▁quasi	-11.8031
▁competent	-11.8033
▁Factor	-11.8038
▁journalism	-11.804
▁plunge	-11.8045
▁Heaven	-11.8045
▁heavier	-11.8045
▁Utah	-11.8048
▁Netherlands	-11.8052
▁slump	-11.8052
Develop	-11.8055
▁History	-11.8059
▁parade	-11.806
▁advancing	-11.8062
▁slack	-11.8065
▁Industrial	-11.8069
▁annoyed	-11.8069
▁silicon	-11.8069
▁solicit	-11.8075
▁semester	-11.8075
▁prototype	-11.8079
activity	-11.8081
▁complementary	-11.8083
▁energies	-11.8086
frame	-11.8088
▁earthquake	-11.8089
▁verified	-11.8093
▁exclusion	-11.8093
▁balancing	-11.8096
▁fetch	-11.8099
▁stripped	-11.8099
▁cube	-11.8104
▁organizing	-11.8108
▁Ontario	-11.8109
▁ambulance	-11.8113
▁capturing	-11.8116
▁resonance	-11.8116
virus	-11.8119
About	-11.812
▁Mau	-11.8121
▁maternal	-11.8123
▁Walter	-11.8125
▁comfortably	-11.8127
▁alpha	-11.8132
▁Taiwan	-11.8133
▁Orleans	-11.8137
▁Knight	-11.8137
▁vinegar	-11.814
▁migrate	-11.8144
▁dispose	-11.815
▁Ministry	-11.815
▁galaxies	-11.815
▁presumably	-11.8154
▁limp	-11.8154
▁clay	-11.8155
▁reckon	-11.8157
▁incurred	-11.8171
▁picnic	-11.8174
▁Jew	-11.8184
▁Support	-11.8185
▁dude	-11.8187
▁unreal	-11.8188
▁hypertension	-11.8192
▁paradigm	-11.8192
▁utilities	-11.8192
▁avenue	-11.8192
▁Cleveland	-11.8195
▁Nancy	-11.8195
▁prophet	-11.8199
▁messaging	-11.8207
▁manipulation	-11.8209
▁disciple	-11.8209
▁reopen	-11.821
▁monetary	-11.8212
▁speculate	-11.8215
▁stimulus	-11.8216
▁whirl	-11.8216
▁blot	-11.8217
▁broth	-11.8219
▁energetic	-11.8223
▁Phoenix	-11.8226
quarter	-11.8234
▁unaware	-11.8236
▁chlor	-11.8243
▁Medi	-11.8256
▁kernel	-11.8257
▁declaration	-11.8261
▁integrating	-11.8264
▁shaft	-11.827
▁Quick	-11.8272
▁pandemic	-11.8275
▁undoubtedly	-11.8285
▁constitution	-11.8289
▁lattice	-11.8292
Employ	-11.8299
motion	-11.8299
▁predator	-11.83
▁blockchain	-11.8306
strict	-11.8315
▁revise	-11.8316
▁geography	-11.8317
scape	-11.8324
▁Semi	-11.8331
▁wagon	-11.8336
▁hostile	-11.834
▁deficiency	-11.8341
▁clause	-11.8341
▁crouch	-11.8344
▁Oscar	-11.8345
▁impress	-11.836
▁philosophical	-11.8362
▁Close	-11.8369
▁voluntary	-11.8369
▁situated	-11.8376
▁clerk	-11.8376
▁Oliver	-11.8379
▁sorrow	-11.8379
▁Turkish	-11.8383
▁salvation	-11.8383
▁Vancouver	-11.8386
▁twitch	-11.8386
walk	-11.8386
▁jazz	-11.8387
uzz	-11.8389
▁mRNA	-11.8391
▁occupy	-11.8393
▁sympathetic	-11.8393
▁Francis	-11.8395
▁encode	-11.8396
▁hetero	-11.8399
▁thirties	-11.84
▁obsessed	-11.8411
▁damaging	-11.8418
▁Corporation	-11.8428
▁attributable	-11.8428
▁scalp	-11.8429
▁Eye	-11.8437
▁mutant	-11.8438
▁saddle	-11.844
▁sank	-11.8452
▁seminar	-11.8455
▁spectra	-11.8456
▁funnel	-11.8458
▁bracket	-11.8464
▁revenge	-11.8464
▁bandwidth	-11.8467
▁Karen	-11.847
▁termination	-11.8471
Otherwise	-11.8473
▁unwanted	-11.8474
▁temptation	-11.8478
▁Visit	-11.848
▁actress	-11.848
▁Consumer	-11.8488
▁pumpkin	-11.8491
▁inference	-11.8492
Ju	-11.8493
opathy	-11.8497
▁biopsy	-11.8506
▁invalid	-11.8517
▁Mediterranean	-11.852
▁premature	-11.8527
▁vaccination	-11.8535
▁coincide	-11.8536
▁Switzerland	-11.8538
▁approximate	-11.8546
▁gospel	-11.8549
▁Jennifer	-11.8552
▁amenities	-11.8553
▁peculiar	-11.8563
▁wives	-11.8565
▁glitter	-11.8574
▁stole	-11.8574
Individual	-11.8577
▁biomarker	-11.8585
▁confined	-11.8585
▁Convention	-11.8588
Essential	-11.8599
▁Command	-11.86
▁Tiger	-11.8606
▁Louisiana	-11.8613
▁Medicaid	-11.8613
▁Agency	-11.8628
▁tempted	-11.8634
▁odor	-11.864
▁undermine	-11.8644
▁liberty	-11.8646
▁Nelson	-11.8646
▁harness	-11.8649
▁tasting	-11.8649
Eventually	-11.865
▁Harvard	-11.8656
▁iOS	-11.8662
▁occupancy	-11.8664
▁reiterate	-11.8667
▁graduation	-11.8674
▁encompass	-11.8689
々	-19.3711
!	-20.3711
"	-20.3711
#	-20.3711
$	-20.3711
%	-20.3711
&	-20.3711
(	-20.3711
)	-20.3711
*	-20.3711
+	-20.3711
,	-20.3711
-	-20.3711
.	-20.3711
/	-20.3711
0	-20.3711
1	-20.3711
2	-20.3711
3	-20.3711
4	-20.3711
5	-20.3711
6	-20.3711
7	-20.3711
8	-20.3711
9	-20.3711
:	-20.3711
;	-20.3711
<	-20.3711
=	-20.3711
>	-20.3711
?	-20.3711
@	-20.3711
[	-20.3711
\	-20.3711
]	-20.3711
^	-20.3711
_	-20.3711
`	-20.3711
{	-20.3711
|	-20.3711
}	-20.3711
~	-20.3711
·	-20.3711
—	-20.3711
―	-20.3711
‘	-20.3711
’	-20.3711
“	-20.3711
”	-20.3711
…	-20.3711
‧	-20.3711
℃	-20.3711
○	-20.3711
、	-20.3711
。	-20.3711
〃	-20.3711
〆	-20.3711
〇	-20.3711
〈	-20.3711
〉	-20.3711
《	-20.3711
》	-20.3711
「	-20.3711
」	-20.3711
『	-20.3711
』	-20.3711
【	-20.3711
】	-20.3711
〒	-20.3711
〜	-20.3711
〝	-20.3711
〞	-20.3711
ぁ	-20.3711
あ	-20.3711
ぃ	-20.3711
い	-20.3711
ぅ	-20.3711
う	-20.3711
ぇ	-20.3711
え	-20.3711
ぉ	-20.3711
お	-20.3711
か	-20.3711
が	-20.3711
き	-20.3711
ぎ	-20.3711
く	-20.3711
ぐ	-20.3711
け	-20.3711
げ	-20.3711
こ	-20.3711
ご	-20.3711
さ	-20.3711
ざ	-20.3711
し	-20.3711
じ	-20.3711
す	-20.3711
ず	-20.3711
せ	-20.3711
ぜ	-20.3711
そ	-20.3711
ぞ	-20.3711
た	-20.3711
だ	-20.3711
ち	-20.3711
ぢ	-20.3711
っ	-20.3711
つ	-20.3711
づ	-20.3711
て	-20.3711
で	-20.3711
と	-20.3711
ど	-20.3711
な	-20.3711
に	-20.3711
ぬ	-20.3711
ね	-20.3711
の	-20.3711
は	-20.3711
ば	-20.3711
ぱ	-20.3711
ひ	-20.3711
び	-20.3711
ぴ	-20.3711
ふ	-20.3711
ぶ	-20.3711
ぷ	-20.3711
へ	-20.3711
べ	-20.3711
ぺ	-20.3711
ほ	-20.3711
ぼ	-20.3711
ぽ	-20.3711
ま	-20.3711
み	-20.3711
む	-20.3711
め	-20.3711
も	-20.3711
ゃ	-20.3711
や	-20.3711
ゅ	-20.3711
ゆ	-20.3711
ょ	-20.3711
よ	-20.3711
ら	-20.3711
り	-20.3711
る	-20.3711
れ	-20.3711
ろ	-20.3711
わ	-20.3711
ゐ	-20.3711
ゑ	-20.3711
を	-20.3711
ん	-20.3711
ゝ	-20.3711
ゞ	-20.3711
ァ	-20.3711
ア	-20.3711
ィ	-20.3711
イ	-20.3711
ゥ	-20.3711
ウ	-20.3711
ェ	-20.3711
エ	-20.3711
ォ	-20.3711
オ	-20.3711
カ	-20.3711
ガ	-20.3711
キ	-20.3711
ギ	-20.3711
ク	-20.3711
グ	-20.3711
ケ	-20.3711
ゲ	-20.3711
コ	-20.3711
ゴ	-20.3711
サ	-20.3711
ザ	-20.3711
シ	-20.3711
ジ	-20.3711
ス	-20.3711
ズ	-20.3711
セ	-20.3711
ゼ	-20.3711
ソ	-20.3711
ゾ	-20.3711
タ	-20.3711
ダ	-20.3711
チ	-20.3711
ヂ	-20.3711
ッ	-20.3711
ツ	-20.3711
ヅ	-20.3711
テ	-20.3711
デ	-20.3711
ト	-20.3711
ド	-20.3711
ナ	-20.3711
ニ	-20.3711
ヌ	-20.3711
ネ	-20.3711
ノ	-20.3711
ハ	-20.3711
バ	-20.3711
パ	-20.3711
ヒ	-20.3711
ビ	-20.3711
ピ	-20.3711
フ	-20.3711
ブ	-20.3711
プ	-20.3711
ヘ	-20.3711
ベ	-20.3711
ペ	-20.3711
ホ	-20.3711
ボ	-20.3711
ポ	-20.3711
マ	-20.3711
ミ	-20.3711
ム	-20.3711
メ	-20.3711
モ	-20.3711
ャ	-20.3711
ヤ	-20.3711
ュ	-20.3711
ユ	-20.3711
ョ	-20.3711
ヨ	-20.3711
ラ	-20.3711
リ	-20.3711
ル	-20.3711
レ	-20.3711
ロ	-20.3711
ヮ	-20.3711
ワ	-20.3711
ヰ	-20.3711
ヱ	-20.3711
ヲ	-20.3711
ン	-20.3711
ヴ	-20.3711
ヵ	-20.3711
ヶ	-20.3711
・	-20.3711
ー	-20.3711
ヾ	-20.3711
㖭	-20.3711
㗎	-20.3711
㩒	-20.3711
㩧	-20.3711
䁯	-20.3711
一	-20.3711
丁	-20.3711
七	-20.3711
万	-20.3711
丈	-20.3711
三	-20.3711
上	-20.3711
下	-20.3711
不	-20.3711
与	-20.3711
丐	-20.3711
丑	-20.3711
专	-20.3711
且	-20.3711
丕	-20.3711
世	-20.3711
丗	-20.3711
丘	-20.3711
丙	-20.3711
业	-20.3711
丛	-20.3711
东	-20.3711
丝	-20.3711
丞	-20.3711
丟	-20.3711
両	-20.3711
丢	-20.3711
两	-20.3711
严	-20.3711
並	-20.3711
丧	-20.3711
丨	-20.3711
个	-20.3711
丫	-20.3711
中	-20.3711
丰	-20.3711
串	-20.3711
临	-20.3711
丶	-20.3711
丸	-20.3711
丹	-20.3711
为	-20.3711
主	-20.3711
丼	-20.3711
丽	-20.3711
举	-20.3711
乂	-20.3711
乃	-20.3711
久	-20.3711
乇	-20.3711
么	-20.3711
义	-20.3711
之	-20.3711
乌	-20.3711
乍	-20.3711
乎	-20.3711
乏	-20.3711
乐	-20.3711
乒	-20.3711
乓	-20.3711
乔	-20.3711
乖	-20.3711
乗	-20.3711
乘	-20.3711
乙	-20.3711
乜	-20.3711
九	-20.3711
乞	-20.3711
也	-20.3711
习	-20.3711
乡	-20.3711
乢	-20.3711
书	-20.3711
乩	-20.3711
乪	-20.3711
买	-20.3711
乱	-20.3711
乳	-20.3711
乸	-20.3711
乾	-20.3711
亀	-20.3711
亁	-20.3711
亂	-20.3711
了	-20.3711
予	-20.3711
争	-20.3711
事	-20.3711
二	-20.3711
亍	-20.3711
于	-20.3711
亏	-20.3711
云	-20.3711
互	-20.3711
亓	-20.3711
五	-20.3711
井	-20.3711
亘	-20.3711
亙	-20.3711
亚	-20.3711
些	-20.3711
亜	-20.3711
亞	-20.3711
亟	-20.3711
亡	-20.3711
亢	-20.3711
交	-20.3711
亥	-20.3711
亦	-20.3711
产	-20.3711
亨	-20.3711
亩	-20.3711
享	-20.3711
京	-20.3711
亭	-20.3711
亮	-20.3711
亰	-20.3711
亲	-20.3711
亳	-20.3711
亵	-20.3711
亶	-20.3711
亹	-20.3711
人	-20.3711
亿	-20.3711
什	-20.3711
仁	-20.3711
仂	-20.3711
仃	-20.3711
仄	-20.3711
仅	-20.3711
仆	-20.3711
仇	-20.3711
仉	-20.3711
今	-20.3711
介	-20.3711
仍	-20.3711
从	-20.3711
仏	-20.3711
仑	-20.3711
仓	-20.3711
仔	-20.3711
仕	-20.3711
他	-20.3711
仗	-20.3711
付	-20.3711
仙	-20.3711
仝	-20.3711
仞	-20.3711
仟	-20.3711
仡	-20.3711
代	-20.3711
令	-20.3711
以	-20.3711
仨	-20.3711
仪	-20.3711
仫	-20.3711
们	-20.3711
仭	-20.3711
仮	-20.3711
仰	-20.3711
仲	-20.3711
仳	-20.3711
仵	-20.3711
件	-20.3711
价	-20.3711
任	-20.3711
份	-20.3711
仿	-20.3711
企	-20.3711
伃	-20.3711
伄	-20.3711
伉	-20.3711
伊	-20.3711
伋	-20.3711
伍	-20.3711
伎	-20.3711
伏	-20.3711
伐	-20.3711
休	-20.3711
众	-20.3711
优	-20.3711
伙	-20.3711
会	-20.3711
伛	-20.3711
伜	-20.3711
伝	-20.3711
伞	-20.3711
伟	-20.3711
传	-20.3711
伢	-20.3711
伤	-20.3711
伥	-20.3711
伦	-20.3711
伧	-20.3711
伪	-20.3711
伫	-20.3711
伯	-20.3711
估	-20.3711
伱	-20.3711
伲	-20.3711
伴	-20.3711
伶	-20.3711
伷	-20.3711
伸	-20.3711
伺	-20.3711
似	-20.3711
伽	-20.3711
佃	-20.3711
但	-20.3711
佇	-20.3711
佈	-20.3711
佉	-20.3711
位	-20.3711
低	-20.3711
住	-20.3711
佐	-20.3711
佑	-20.3711
体	-20.3711
佔	-20.3711
何	-20.3711
佗	-20.3711
佘	-20.3711
余	-20.3711
佚	-20.3711
佛	-20.3711
作	-20.3711
佝	-20.3711
佞	-20.3711
佟	-20.3711
你	-20.3711
佢	-20.3711
佣	-20.3711
佤	-20.3711
佥	-20.3711
佩	-20.3711
佬	-20.3711
佯	-20.3711
佰	-20.3711
佳	-20.3711
併	-20.3711
佶	-20.3711
佷	-20.3711
佺	-20.3711
佻	-20.3711
佼	-20.3711
佾	-20.3711
使	-20.3711
侂	-20.3711
侃	-20.3711
侄	-20.3711
來	-20.3711
侈	-20.3711
侉	-20.3711
例	-20.3711
侍	-20.3711
侏	-20.3711
侑	-20.3711
侓	-20.3711
侔	-20.3711
侗	-20.3711
侘	-20.3711
供	-20.3711
依	-20.3711
侠	-20.3711
価	-20.3711
侣	-20.3711
侥	-20.3711
侦	-20.3711
侧	-20.3711
侨	-20.3711
侩	-20.3711
侪	-20.3711
侬	-20.3711
侭	-20.3711
侮	-20.3711
侯	-20.3711
侵	-20.3711
侶	-20.3711
侷	-20.3711
便	-20.3711
係	-20.3711
促	-20.3711
俄	-20.3711
俅	-20.3711
俊	-20.3711
俎	-20.3711
俏	-20.3711
俐	-20.3711
俑	-20.3711
俔	-20.3711
俗	-20.3711
俘	-20.3711
俚	-20.3711
俛	-20.3711
俜	-20.3711
保	-20.3711
俞	-20.3711
俟	-20.3711
俠	-20.3711
信	-20.3711
俢	-20.3711
俣	-20.3711
俤	-20.3711
俦	-20.3711
俨	-20.3711
俩	-20.3711
俪	-20.3711
俬	-20.3711
俭	-20.3711
修	-20.3711
俯	-20.3711
俱	-20.3711
俳	-20.3711
俵	-20.3711
俶	-20.3711
俸	-20.3711
俺	-20.3711
俾	-20.3711
倅	-20.3711
倆	-20.3711
倉	-20.3711
個	-20.3711
倌	-20.3711
倍	-20.3711
倏	-20.3711
們	-20.3711
倒	-20.3711
倓	-20.3711
倔	-20.3711
倖	-20.3711
倘	-20.3711
候	-20.3711
倚	-20.3711
倜	-20.3711
借	-20.3711
倡	-20.3711
倢	-20.3711
倣	-20.3711
値	-20.3711
倥	-20.3711
倦	-20.3711
倧	-20.3711
倨	-20.3711
倩	-20.3711
倪	-20.3711
倫	-20.3711
倬	-20.3711
倭	-20.3711
倮	-20.3711
倶	-20.3711
倹	-20.3711
债	-20.3711
值	-20.3711
倾	-20.3711
偁	-20.3711
偃	-20.3711
假	-20.3711
偈	-20.3711
偉	-20.3711
偌	-20.3711
偎	-20.3711
偏	-20.3711
偓	-20.3711
偕	-20.3711
偖	-20.3711
做	-20.3711
停	-20.3711
健	-20.3711
偬	-20.3711
偭	-20.3711
偱	-20.3711
偲	-20.3711
側	-20.3711
偵	-20.3711
偶	-20.3711
偷	-20.3711
偸	-20.3711
偻	-20.3711
偽	-20.3711
偾	-20.3711
偿	-20.3711
傀	-20.3711
傅	-20.3711
傈	-20.3711
傍	-20.3711
傑	-20.3711
傕	-20.3711
傘	-20.3711
備	-20.3711
傜	-20.3711
傢	-20.3711
傣	-20.3711
傥	-20.3711
傧	-20.3711
储	-20.3711
傩	-20.3711
傫	-20.3711
催	-20.3711
傭	-20.3711
傲	-20.3711
傳	-20.3711
傴	-20.3711
債	-20.3711
傷	-20.3711
傺	-20.3711
傻	-20.3711
傾	-20.3711
僂	-20.3711
僅	-20.3711
僆	-20.3711
僉	-20.3711
僊	-20.3711
働	-20.3711
像	-20.3711
僑	-20.3711
僔	-20.3711
僕	-20.3711
僖	-20.3711
僚	-20.3711
僞	-20.3711
僣	-20.3711
僥	-20.3711
僦	-20.3711
僧	-20.3711
僬	-20.3711
僭	-20.3711
僮	-20.3711
僱	-20.3711
僳	-20.3711
僵	-20.3711
價	-20.3711
僻	-20.3711
儀	-20.3711
儁	-20.3711
儂	-20.3711
億	-20.3711
儆	-20.3711
儈	-20.3711
儉	-20.3711
儋	-20.3711
儒	-20.3711
儔	-20.3711
儕	-20.3711
儘	-20.3711
儚	-20.3711
償	-20.3711
儡	-20.3711
優	-20.3711
儲	-20.3711
儷	-20.3711
儺	-20.3711
儼	-20.3711
儿	-20.3711
兀	-20.3711
允	-20.3711
元	-20.3711
兄	-20.3711
充	-20.3711
兆	-20.3711
兇	-20.3711
先	-20.3711
光	-20.3711
兊	-20.3711
克	-20.3711
兌	-20.3711
免	-20.3711
兎	-20.3711
児	-20.3711
兑	-20.3711
兒	-20.3711
兔	-20.3711
兕	-20.3711
兖	-20.3711
党	-20.3711
兜	-20.3711
兢	-20.3711
入	-20.3711
內	-20.3711
全	-20.3711
兩	-20.3711
兪	-20.3711
八	-20.3711
公	-20.3711
六	-20.3711
兮	-20.3711
兰	-20.3711
共	-20.3711
关	-20.3711
兴	-20.3711
兵	-20.3711
其	-20.3711
具	-20.3711
典	-20.3711
兹	-20.3711
养	-20.3711
兼	-20.3711
兽	-20.3711
冀	-20.3711
冂	-20.3711
内	-20.3711
円	-20.3711
冇	-20.3711
冈	-20.3711
冉	-20.3711
冊	-20.3711
册	-20.3711
再	-20.3711
冏	-20.3711
冑	-20.3711
冒	-20.3711
冕	-20.3711
冖	-20.3711
冗	-20.3711
写	-20.3711
冚	-20.3711
军	-20.3711
农	-20.3711
冠	-20.3711
冢	-20.3711
冤	-20.3711
冥	-20.3711
冦	-20.3711
冧	-20.3711
冨	-20.3711
冩	-20.3711
冪	-20.3711
冫	-20.3711
冬	-20.3711
冮	-20.3711
冯	-20.3711
冰	-20.3711
冱	-20.3711
冲	-20.3711
决	-20.3711
冴	-20.3711
况	-20.3711
冶	-20.3711
冷	-20.3711
冻	-20.3711
冼	-20.3711
冽	-20.3711
冿	-20.3711
净	-20.3711
凄	-20.3711
准	-20.3711
凇	-20.3711
凈	-20.3711
凉	-20.3711
凊	-20.3711
凋	-20.3711
凌	-20.3711
凍	-20.3711
减	-20.3711
凑	-20.3711
凖	-20.3711
凛	-20.3711
凜	-20.3711
凝	-20.3711
几	-20.3711
凡	-20.3711
凢	-20.3711
凤	-20.3711
処	-20.3711
凧	-20.3711
凩	-20.3711
凪	-20.3711
凫	-20.3711
凭	-20.3711
凯	-20.3711
凰	-20.3711
凱	-20.3711
凳	-20.3711
凵	-20.3711
凶	-20.3711
凸	-20.3711
凹	-20.3711
出	-20.3711
击	-20.3711
凼	-20.3711
函	-20.3711
凿	-20.3711
刀	-20.3711
刁	-20.3711
刃	-20.3711
分	-20.3711
切	-20.3711
刈	-20.3711
刊	-20.3711
刍	-20.3711
刎	-20.3711
刑	-20.3711
划	-20.3711
刔	-20.3711
列	-20.3711
刘	-20.3711
则	-20.3711
刚	-20.3711
创	-20.3711
初	-20.3711
删	-20.3711
判	-20.3711
別	-20.3711
刨	-20.3711
利	-20.3711
刪	-20.3711
别	-20.3711
刬	-20.3711
刭	-20.3711
刮	-20.3711
到	-20.3711
刳	-20.3711
制	-20.3711
刷	-20.3711
券	-20.3711
刹	-20.3711
刺	-20.3711
刻	-20.3711
刼	-20.3711
刽	-20.3711
刿	-20.3711
剀	-20.3711
剁	-20.3711
剂	-20.3711
剃	-20.3711
剅	-20.3711
則	-20.3711
削	-20.3711
剋	-20.3711
剌	-20.3711
前	-20.3711
剎	-20.3711
剐	-20.3711
剑	-20.3711
剔	-20.3711
剕	-20.3711
剖	-20.3711
剛	-20.3711
剜	-20.3711
剝	-20.3711
剞	-20.3711
剟	-20.3711
剡	-20.3711
剣	-20.3711
剤	-20.3711
剥	-20.3711
剧	-20.3711
剩	-20.3711
剪	-20.3711
副	-20.3711
剰	-20.3711
剱	-20.3711
割	-20.3711
剴	-20.3711
創	-20.3711
剽	-20.3711
剿	-20.3711
劂	-20.3711
劃	-20.3711
劇	-20.3711
劈	-20.3711
劉	-20.3711
劍	-20.3711
劏	-20.3711
劑	-20.3711
劒	-20.3711
劓	-20.3711
劔	-20.3711
力	-20.3711
劝	-20.3711
办	-20.3711
功	-20.3711
加	-20.3711
务	-20.3711
劢	-20.3711
劣	-20.3711
动	-20.3711
助	-20.3711
努	-20.3711
劫	-20.3711
劬	-20.3711
劭	-20.3711
励	-20.3711
劲	-20.3711
劳	-20.3711
労	-20.3711
劵	-20.3711
効	-20.3711
劼	-20.3711
劾	-20.3711
势	-20.3711
勁	-20.3711
勃	-20.3711
勅	-20.3711
勇	-20.3711
勉	-20.3711
勋	-20.3711
勍	-20.3711
勐	-20.3711
勒	-20.3711
動	-20.3711
勖	-20.3711
勗	-20.3711
勘	-20.3711
務	-20.3711
勛	-20.3711
勝	-20.3711
勞	-20.3711
募	-20.3711
勠	-20.3711
勢	-20.3711
勣	-20.3711
勤	-20.3711
勦	-20.3711
勧	-20.3711
勮	-20.3711
勰	-20.3711
勲	-20.3711
勳	-20.3711
勵	-20.3711
勸	-20.3711
勹	-20.3711
勺	-20.3711
勻	-20.3711
勾	-20.3711
勿	-20.3711
匀	-20.3711
匁	-20.3711
匂	-20.3711
包	-20.3711
匆	-20.3711
匈	-20.3711
匍	-20.3711
匏	-20.3711
匐	-20.3711
匕	-20.3711
化	-20.3711
北	-20.3711
匙	-20.3711
匚	-20.3711
匜	-20.3711
匝	-20.3711
匠	-20.3711
匡	-20.3711
匣	-20.3711
匪	-20.3711
匮	-20.3711
匯	-20.3711
匱	-20.3711
匸	-20.3711
匹	-20.3711
区	-20.3711
医	-20.3711
匼	-20.3711
匽	-20.3711
匾	-20.3711
匿	-20.3711
區	-20.3711
十	-20.3711
千	-20.3711
卅	-20.3711
卆	-20.3711
升	-20.3711
午	-20.3711
卉	-20.3711
半	-20.3711
卍	-20.3711
华	-20.3711
协	-20.3711
卑	-20.3711
卒	-20.3711
卓	-20.3711
協	-20.3711
单	-20.3711
卖	-20.3711
南	-20.3711
単	-20.3711
博	-20.3711
卜	-20.3711
卞	-20.3711
卟	-20.3711
占	-20.3711
卡	-20.3711
卢	-20.3711
卣	-20.3711
卤	-20.3711
卦	-20.3711
卧	-20.3711
卫	-20.3711
卬	-20.3711
卮	-20.3711
卯	-20.3711
印	-20.3711
危	-20.3711
卲	-20.3711
即	-20.3711
却	-20.3711
卵	-20.3711
卷	-20.3711
卸	-20.3711
卺	-20.3711
卻	-20.3711
卿	-20.3711
厂	-20.3711
厄	-20.3711
厅	-20.3711
历	-20.3711
厉	-20.3711
压	-20.3711
厌	-20.3711
厍	-20.3711
厐	-20.3711
厓	-20.3711
厔	-20.3711
厕	-20.3711
厖	-20.3711
厘	-20.3711
厚	-20.3711
厝	-20.3711
原	-20.3711
厠	-20.3711
厢	-20.3711
厣	-20.3711
厥	-20.3711
厦	-20.3711
厨	-20.3711
厩	-20.3711
厭	-20.3711
厮	-20.3711
厰	-20.3711
厲	-20.3711
厳	-20.3711
厶	-20.3711
去	-20.3711
县	-20.3711
叁	-20.3711
参	-20.3711
參	-20.3711
叆	-20.3711
又	-20.3711
叉	-20.3711
及	-20.3711
友	-20.3711
双	-20.3711
反	-20.3711
収	-20.3711
发	-20.3711
叔	-20.3711
取	-20.3711
受	-20.3711
变	-20.3711
叙	-20.3711
叛	-20.3711
叟	-20.3711
叠	-20.3711
叡	-20.3711
叢	-20.3711
口	-20.3711
古	-20.3711
句	-20.3711
另	-20.3711
叨	-20.3711
叩	-20.3711
只	-20.3711
叫	-20.3711
召	-20.3711
叭	-20.3711
叮	-20.3711
可	-20.3711
台	-20.3711
叱	-20.3711
史	-20.3711
右	-20.3711
叵	-20.3711
叶	-20.3711
号	-20.3711
司	-20.3711
叹	-20.3711
叺	-20.3711
叻	-20.3711
叼	-20.3711
叽	-20.3711
吁	-20.3711
吃	-20.3711
各	-20.3711
吅	-20.3711
吆	-20.3711
吇	-20.3711
合	-20.3711
吉	-20.3711
吊	-20.3711
吋	-20.3711
同	-20.3711
名	-20.3711
后	-20.3711
吏	-20.3711
吐	-20.3711
向	-20.3711
吒	-20.3711
吓	-20.3711
吔	-20.3711
吕	-20.3711
吖	-20.3711
吗	-20.3711
吙	-20.3711
君	-20.3711
吝	-20.3711
吞	-20.3711
吟	-20.3711
吠	-20.3711
吡	-20.3711
吣	-20.3711
吥	-20.3711
否	-20.3711
吧	-20.3711
吨	-20.3711
吩	-20.3711
含	-20.3711
听	-20.3711
吭	-20.3711
吮	-20.3711
启	-20.3711
吱	-20.3711
吲	-20.3711
吳	-20.3711
吴	-20.3711
吵	-20.3711
吶	-20.3711
吸	-20.3711
吹	-20.3711
吻	-20.3711
吼	-20.3711
吽	-20.3711
吾	-20.3711
吿	-20.3711
呀	-20.3711
呂	-20.3711
呃	-20.3711
呆	-20.3711
呈	-20.3711
呉	-20.3711
告	-20.3711
呋	-20.3711
呎	-20.3711
呐	-20.3711
呑	-20.3711
呒	-20.3711
呓	-20.3711
呔	-20.3711
呕	-20.3711
呖	-20.3711
呗	-20.3711
员	-20.3711
呙	-20.3711
呛	-20.3711
呜	-20.3711
呟	-20.3711
呢	-20.3711
呣	-20.3711
呤	-20.3711
呦	-20.3711
周	-20.3711
呪	-20.3711
呫	-20.3711
呯	-20.3711
呰	-20.3711
呱	-20.3711
呲	-20.3711
味	-20.3711
呵	-20.3711
呶	-20.3711
呷	-20.3711
呸	-20.3711
呻	-20.3711
呼	-20.3711
命	-20.3711
咀	-20.3711
咁	-20.3711
咂	-20.3711
咄	-20.3711
咆	-20.3711
咉	-20.3711
咋	-20.3711
和	-20.3711
咎	-20.3711
咏	-20.3711
咐	-20.3711
咒	-20.3711
咔	-20.3711
咕	-20.3711
咖	-20.3711
咗	-20.3711
咘	-20.3711
咙	-20.3711
咚	-20.3711
咛	-20.3711
咝	-20.3711
咣	-20.3711
咤	-20.3711
咦	-20.3711
咧	-20.3711
咨	-20.3711
咩	-20.3711
咪	-20.3711
咫	-20.3711
咬	-20.3711
咭	-20.3711
咯	-20.3711
咱	-20.3711
咲	-20.3711
咳	-20.3711
咴	-20.3711
咵	-20.3711
咶	-20.3711
咷	-20.3711
咸	-20.3711
咹	-20.3711
咻	-20.3711
咽	-20.3711
咾	-20.3711
咿	-20.3711
哀	-20.3711
品	-20.3711
哂	-20.3711
哃	-20.3711
哄	-20.3711
哆	-20.3711
哇	-20.3711
哈	-20.3711
哉	-20.3711
哋	-20.3711
哌	-20.3711
响	-20.3711
哎	-20.3711
哏	-20.3711
哐	-20.3711
哑	-20.3711
哒	-20.3711
哓	-20.3711
哔	-20.3711
哕	-20.3711
哖	-20.3711
哗	-20.3711
哘	-20.3711
哙	-20.3711
哚	-20.3711
哜	-20.3711
哝	-20.3711
哞	-20.3711
哟	-20.3711
哠	-20.3711
員	-20.3711
哥	-20.3711
哦	-20.3711
哧	-20.3711
哨	-20.3711
哩	-20.3711
哪	-20.3711
哭	-20.3711
哮	-20.3711
哲	-20.3711
哺	-20.3711
哼	-20.3711
哽	-20.3711
唁	-20.3711
唄	-20.3711
唆	-20.3711
唇	-20.3711
唉	-20.3711
唏	-20.3711
唐	-20.3711
唑	-20.3711
唔	-20.3711
唖	-20.3711
唛	-20.3711
唞	-20.3711
唠	-20.3711
唢	-20.3711
唣	-20.3711
唤	-20.3711
唧	-20.3711
唪	-20.3711
唬	-20.3711
售	-20.3711
唯	-20.3711
唰	-20.3711
唱	-20.3711
唳	-20.3711
唵	-20.3711
唷	-20.3711
唸	-20.3711
唻	-20.3711
唼	-20.3711
唾	-20.3711
唿	-20.3711
啀	-20.3711
啁	-20.3711
啂	-20.3711
啃	-20.3711
啄	-20.3711
商	-20.3711
啉	-20.3711
啊	-20.3711
啋	-20.3711
問	-20.3711
啐	-20.3711
啓	-20.3711
啕	-20.3711
啖	-20.3711
啜	-20.3711
啞	-20.3711
啟	-20.3711
啡	-20.3711
啤	-20.3711
啥	-20.3711
啦	-20.3711
啧	-20.3711
啩	-20.3711
啪	-20.3711
啫	-20.3711
啬	-20.3711
啭	-20.3711
啮	-20.3711
啯	-20.3711
啰	-20.3711
啱	-20.3711
啲	-20.3711
啵	-20.3711
啶	-20.3711
啷	-20.3711
啸	-20.3711
啻	-20.3711
啼	-20.3711
啾	-20.3711
喀	-20.3711
喁	-20.3711
喂	-20.3711
喃	-20.3711
善	-20.3711
喆	-20.3711
喇	-20.3711
喈	-20.3711
喉	-20.3711
喊	-20.3711
喋	-20.3711
喎	-20.3711
喏	-20.3711
喐	-20.3711
喑	-20.3711
喒	-20.3711
喓	-20.3711
喔	-20.3711
喘	-20.3711
喙	-20.3711
喚	-20.3711
喛	-20.3711
喜	-20.3711
喝	-20.3711
喟	-20.3711
喤	-20.3711
喧	-20.3711
喨	-20.3711
喩	-20.3711
喪	-20.3711
喫	-20.3711
喬	-20.3711
單	-20.3711
喰	-20.3711
喱	-20.3711
喲	-20.3711
喳	-20.3711
喵	-20.3711
営	-20.3711
喷	-20.3711
喹	-20.3711
喺	-20.3711
喻	-20.3711
喽	-20.3711
喾	-20.3711
嗄	-20.3711
嗅	-20.3711
嗆	-20.3711
嗇	-20.3711
嗉	-20.3711
嗌	-20.3711
嗍	-20.3711
嗎	-20.3711
嗐	-20.3711
嗑	-20.3711
嗒	-20.3711
嗓	-20.3711
嗔	-20.3711
嗖	-20.3711
嗙	-20.3711
嗚	-20.3711
嗛	-20.3711
嗜	-20.3711
嗝	-20.3711
嗞	-20.3711
嗟	-20.3711
嗡	-20.3711
嗣	-20.3711
嗤	-20.3711
嗥	-20.3711
嗦	-20.3711
嗨	-20.3711
嗪	-20.3711
嗫	-20.3711
嗬	-20.3711
嗮	-20.3711
嗯	-20.3711
嗰	-20.3711
嗱	-20.3711
嗲	-20.3711
嗳	-20.3711
嗵	-20.3711
嗶	-20.3711
嗷	-20.3711
嗻	-20.3711
嗽	-20.3711
嗾	-20.3711
嘀	-20.3711
嘁	-20.3711
嘅	-20.3711
嘆	-20.3711
嘈	-20.3711
嘉	-20.3711
嘌	-20.3711
嘎	-20.3711
嘏	-20.3711
嘔	-20.3711
嘖	-20.3711
嘗	-20.3711
嘘	-20.3711
嘚	-20.3711
嘛	-20.3711
嘞	-20.3711
嘟	-20.3711
嘡	-20.3711
嘢	-20.3711
嘣	-20.3711
嘤	-20.3711
嘥	-20.3711
嘧	-20.3711
嘩	-20.3711
嘬	-20.3711
嘭	-20.3711
嘯	-20.3711
嘰	-20.3711
嘱	-20.3711
嘲	-20.3711
嘴	-20.3711
嘶	-20.3711
嘸	-20.3711
嘹	-20.3711
嘻	-20.3711
嘿	-20.3711
噂	-20.3711
噃	-20.3711
噌	-20.3711
噍	-20.3711
噎	-20.3711
噓	-20.3711
噔	-20.3711
噗	-20.3711
噘	-20.3711
噙	-20.3711
噛	-20.3711
噜	-20.3711
噠	-20.3711
噢	-20.3711
噤	-20.3711
器	-20.3711
噩	-20.3711
噪	-20.3711
噫	-20.3711
噬	-20.3711
噱	-20.3711
噴	-20.3711
噶	-20.3711
噸	-20.3711
噹	-20.3711
噺	-20.3711
噻	-20.3711
噼	-20.3711
嚀	-20.3711
嚅	-20.3711
嚆	-20.3711
嚇	-20.3711
嚊	-20.3711
嚎	-20.3711
嚏	-20.3711
嚐	-20.3711
嚒	-20.3711
嚓	-20.3711
嚔	-20.3711
嚕	-20.3711
嚗	-20.3711
嚜	-20.3711
嚟	-20.3711
嚠	-20.3711
嚢	-20.3711
嚣	-20.3711
嚥	-20.3711
嚨	-20.3711
嚩	-20.3711
嚭	-20.3711
嚮	-20.3711
嚯	-20.3711
嚴	-20.3711
嚶	-20.3711
嚷	-20.3711
嚼	-20.3711
囀	-20.3711
囁	-20.3711
囂	-20.3711
囃	-20.3711
囈	-20.3711
囉	-20.3711
囊	-20.3711
囍	-20.3711
囎	-20.3711
囑	-20.3711
囔	-20.3711
囖	-20.3711
囗	-20.3711
囚	-20.3711
四	-20.3711
囝	-20.3711
回	-20.3711
囟	-20.3711
因	-20.3711
囡	-20.3711
团	-20.3711
団	-20.3711
囤	-20.3711
囧	-20.3711
囨	-20.3711
囫	-20.3711
园	-20.3711
囮	-20.3711
囯	-20.3711
困	-20.3711
囱	-20.3711
囲	-20.3711
図	-20.3711
围	-20.3711
囵	-20.3711
囷	-20.3711
囹	-20.3711
固	-20.3711
国	-20.3711
图	-20.3711
囿	-20.3711
圀	-20.3711
圃	-20.3711
圄	-20.3711
圆	-20.3711
圈	-20.3711
圉	-20.3711
圊	-20.3711
國	-20.3711
圍	-20.3711
圏	-20.3711
園	-20.3711
圓	-20.3711
圖	-20.3711
團	-20.3711
圜	-20.3711
土	-20.3711
圣	-20.3711
圦	-20.3711
圧	-20.3711
在	-20.3711
圩	-20.3711
圪	-20.3711
圬	-20.3711
圭	-20.3711
圮	-20.3711
圯	-20.3711
地	-20.3711
圳	-20.3711
圷	-20.3711
圹	-20.3711
场	-20.3711
圻	-20.3711
圾	-20.3711
址	-20.3711
坂	-20.3711
均	-20.3711
坊	-20.3711
坍	-20.3711
坎	-20.3711
坏	-20.3711
坐	-20.3711
坑	-20.3711
坒	-20.3711
块	-20.3711
坚	-20.3711
坛	-20.3711
坜	-20.3711
坝	-20.3711
坞	-20.3711
坟	-20.3711
坠	-20.3711
坡	-20.3711
坤	-20.3711
坦	-20.3711
坨	-20.3711
坩	-20.3711
坪	-20.3711
坭	-20.3711
坮	-20.3711
坯	-20.3711
坳	-20.3711
坷	-20.3711
坻	-20.3711
坼	-20.3711
垂	-20.3711
垃	-20.3711
垄	-20.3711
垅	-20.3711
垆	-20.3711
垇	-20.3711
垈	-20.3711
型	-20.3711
垌	-20.3711
垍	-20.3711
垒	-20.3711
垓	-20.3711
垕	-20.3711
垗	-20.3711
垚	-20.3711
垛	-20.3711
垝	-20.3711
垠	-20.3711
垡	-20.3711
垢	-20.3711
垣	-20.3711
垤	-20.3711
垦	-20.3711
垧	-20.3711
垩	-20.3711
垪	-20.3711
垫	-20.3711
垭	-20.3711
垮	-20.3711
垯	-20.3711
垰	-20.3711
垱	-20.3711
垳	-20.3711
垴	-20.3711
垵	-20.3711
垸	-20.3711
埀	-20.3711
埂	-20.3711
埃	-20.3711
埆	-20.3711
埇	-20.3711
埋	-20.3711
埌	-20.3711
城	-20.3711
埏	-20.3711
埒	-20.3711
埓	-20.3711
埔	-20.3711
埕	-20.3711
埖	-20.3711
埗	-20.3711
埙	-20.3711
埚	-20.3711
埜	-20.3711
埝	-20.3711
域	-20.3711
埠	-20.3711
埣	-20.3711
埤	-20.3711
埪	-20.3711
埭	-20.3711
埲	-20.3711
埴	-20.3711
埵	-20.3711
執	-20.3711
埸	-20.3711
培	-20.3711
基	-20.3711
埼	-20.3711
埽	-20.3711
堀	-20.3711
堂	-20.3711
堃	-20.3711
堅	-20.3711
堆	-20.3711
堇	-20.3711
堊	-20.3711
堋	-20.3711
堌	-20.3711
堍	-20.3711
堎	-20.3711
堐	-20.3711
堑	-20.3711
堕	-20.3711
堙	-20.3711
堝	-20.3711
堞	-20.3711
堠	-20.3711
堡	-20.3711
堢	-20.3711
堤	-20.3711
堨	-20.3711
堪	-20.3711
堯	-20.3711
堰	-20.3711
報	-20.3711
場	-20.3711
堵	-20.3711
堺	-20.3711
堼	-20.3711
塀	-20.3711
塁	-20.3711
塄	-20.3711
塊	-20.3711
塋	-20.3711
塌	-20.3711
塍	-20.3711
塑	-20.3711
塒	-20.3711
塔	-20.3711
塗	-20.3711
塘	-20.3711
塙	-20.3711
塚	-20.3711
塞	-20.3711
塢	-20.3711
塩	-20.3711
填	-20.3711
塬	-20.3711
塲	-20.3711
塵	-20.3711
塹	-20.3711
塽	-20.3711
塾	-20.3711
墀	-20.3711
墁	-20.3711
境	-20.3711
墅	-20.3711
墉	-20.3711
墊	-20.3711
墎	-20.3711
墒	-20.3711
墓	-20.3711
墕	-20.3711
増	-20.3711
墙	-20.3711
墚	-20.3711
墜	-20.3711
增	-20.3711
墟	-20.3711
墡	-20.3711
墨	-20.3711
墩	-20.3711
墫	-20.3711
墮	-20.3711
墳	-20.3711
墹	-20.3711
墺	-20.3711
墻	-20.3711
墼	-20.3711
墾	-20.3711
壁	-20.3711
壅	-20.3711
壇	-20.3711
壊	-20.3711
壌	-20.3711
壑	-20.3711
壓	-20.3711
壕	-20.3711
壗	-20.3711
壘	-20.3711
壜	-20.3711
壞	-20.3711
壟	-20.3711
壤	-20.3711
壩	-20.3711
士	-20.3711
壬	-20.3711
壮	-20.3711
壯	-20.3711
声	-20.3711
壱	-20.3711
売	-20.3711
壳	-20.3711
壶	-20.3711
壷	-20.3711
壸	-20.3711
壹	-20.3711
壺	-20.3711
壻	-20.3711
壽	-20.3711
处	-20.3711
备	-20.3711
変	-20.3711
夊	-20.3711
夌	-20.3711
复	-20.3711
夏	-20.3711
夐	-20.3711
夔	-20.3711
夕	-20.3711
外	-20.3711
夙	-20.3711
多	-20.3711
夛	-20.3711
夜	-20.3711
够	-20.3711
夠	-20.3711
夢	-20.3711
夤	-20.3711
夥	-20.3711
大	-20.3711
天	-20.3711
太	-20.3711
夫	-20.3711
夬	-20.3711
夭	-20.3711
央	-20.3711
夯	-20.3711
失	-20.3711
头	-20.3711
夷	-20.3711
夸	-20.3711
夹	-20.3711
夺	-20.3711
夼	-20.3711
夾	-20.3711
奁	-20.3711
奂	-20.3711
奄	-20.3711
奇	-20.3711
奈	-20.3711
奉	-20.3711
奋	-20.3711
奌	-20.3711
奎	-20.3711
奏	-20.3711
奐	-20.3711
契	-20.3711
奔	-20.3711
奕	-20.3711
奖	-20.3711
套	-20.3711
奘	-20.3711
奚	-20.3711
奠	-20.3711
奢	-20.3711
奥	-20.3711
奧	-20.3711
奨	-20.3711
奪	-20.3711
奬	-20.3711
奭	-20.3711
奮	-20.3711
女	-20.3711
奴	-20.3711
奶	-20.3711
奸	-20.3711
她	-20.3711
好	-20.3711
妁	-20.3711
如	-20.3711
妃	-20.3711
妄	-20.3711
妆	-20.3711
妇	-20.3711
妈	-20.3711
妊	-20.3711
妍	-20.3711
妒	-20.3711
妓	-20.3711
妖	-20.3711
妗	-20.3711
妙	-20.3711
妝	-20.3711
妞	-20.3711
妣	-20.3711
妤	-20.3711
妥	-20.3711
妧	-20.3711
妨	-20.3711
妩	-20.3711
妪	-20.3711
妫	-20.3711
妬	-20.3711
妮	-20.3711
妯	-20.3711
妱	-20.3711
妲	-20.3711
妹	-20.3711
妺	-20.3711
妻	-20.3711
妽	-20.3711
妾	-20.3711
姆	-20.3711
姉	-20.3711
姊	-20.3711
始	-20.3711
姍	-20.3711
姐	-20.3711
姑	-20.3711
姒	-20.3711
姓	-20.3711
委	-20.3711
姗	-20.3711
姘	-20.3711
姚	-20.3711
姜	-20.3711
姝	-20.3711
姣	-20.3711
姤	-20.3711
姥	-20.3711
姦	-20.3711
姨	-20.3711
姩	-20.3711
姪	-20.3711
姫	-20.3711
姬	-20.3711
姮	-20.3711
姶	-20.3711
姸	-20.3711
姹	-20.3711
姺	-20.3711
姻	-20.3711
姿	-20.3711
威	-20.3711
娃	-20.3711
娄	-20.3711
娅	-20.3711
娆	-20.3711
娇	-20.3711
娈	-20.3711
娉	-20.3711
娌	-20.3711
娑	-20.3711
娓	-20.3711
娘	-20.3711
娚	-20.3711
娛	-20.3711
娜	-20.3711
娟	-20.3711
娠	-20.3711
娡	-20.3711
娣	-20.3711
娥	-20.3711
娩	-20.3711
娯	-20.3711
娱	-20.3711
娲	-20.3711
娴	-20.3711
娶	-20.3711
娼	-20.3711
娿	-20.3711
婀	-20.3711
婁	-20.3711
婄	-20.3711
婆	-20.3711
婉	-20.3711
婊	-20.3711
婌	-20.3711
婕	-20.3711
婚	-20.3711
婢	-20.3711
婦	-20.3711
婧	-20.3711
婪	-20.3711
婬	-20.3711
婴	-20.3711
婵	-20.3711
婶	-20.3711
婷	-20.3711
婺	-20.3711
婿	-20.3711
媒	-20.3711
媖	-20.3711
媚	-20.3711
媛	-20.3711
媜	-20.3711
媞	-20.3711
媪	-20.3711
媱	-20.3711
媲	-20.3711
媳	-20.3711
媵	-20.3711
媼	-20.3711
媽	-20.3711
媾	-20.3711
嫁	-20.3711
嫂	-20.3711
嫄	-20.3711
嫉	-20.3711
嫋	-20.3711
嫌	-20.3711
嫒	-20.3711
嫔	-20.3711
嫖	-20.3711
嫗	-20.3711
嫘	-20.3711
嫚	-20.3711
嫡	-20.3711
嫣	-20.3711
嫤	-20.3711
嫦	-20.3711
嫩	-20.3711
嫪	-20.3711
嫫	-20.3711
嫰	-20.3711
嫱	-20.3711
嫲	-20.3711
嫵	-20.3711
嫻	-20.3711
嬅	-20.3711
嬉	-20.3711
嬋	-20.3711
嬌	-20.3711
嬖	-20.3711
嬗	-20.3711
嬛	-20.3711
嬢	-20.3711
嬥	-20.3711
嬪	-20.3711
嬬	-20.3711
嬰	-20.3711
嬲	-20.3711
嬴	-20.3711
嬶	-20.3711
嬷	-20.3711
嬸	-20.3711
孀	-20.3711
孃	-20.3711
子	-20.3711
孑	-20.3711
孓	-20.3711
孔	-20.3711
孕	-20.3711
孖	-20.3711
字	-20.3711
存	-20.3711
孙	-20.3711
孚	-20.3711
孛	-20.3711
孜	-20.3711
孝	-20.3711
孟	-20.3711
孢	-20.3711
季	-20.3711
孤	-20.3711
孥	-20.3711
学	-20.3711
孩	-20.3711
孪	-20.3711
孫	-20.3711
孬	-20.3711
孭	-20.3711
孰	-20.3711
孱	-20.3711
孳	-20.3711
孵	-20.3711
學	-20.3711
孺	-20.3711
孽	-20.3711
宁	-20.3711
它	-20.3711
宄	-20.3711
宅	-20.3711
宇	-20.3711
守	-20.3711
安	-20.3711
宋	-20.3711
完	-20.3711
宍	-20.3711
宏	-20.3711
宓	-20.3711
宕	-20.3711
宗	-20.3711
官	-20.3711
宙	-20.3711
定	-20.3711
宛	-20.3711
宜	-20.3711
宝	-20.3711
实	-20.3711
実	-20.3711
宠	-20.3711
审	-20.3711
客	-20.3711
宣	-20.3711
室	-20.3711
宥	-20.3711
宦	-20.3711
宪	-20.3711
宫	-20.3711
宮	-20.3711
宰	-20.3711
害	-20.3711
宴	-20.3711
宵	-20.3711
家	-20.3711
宸	-20.3711
容	-20.3711
宽	-20.3711
宾	-20.3711
宿	-20.3711
寂	-20.3711
寄	-20.3711
寅	-20.3711
密	-20.3711
寇	-20.3711
富	-20.3711
寐	-20.3711
寒	-20.3711
寓	-20.3711
寔	-20.3711
寕	-20.3711
寖	-20.3711
寛	-20.3711
寝	-20.3711
寞	-20.3711
察	-20.3711
寠	-20.3711
寡	-20.3711
寢	-20.3711
寤	-20.3711
寥	-20.3711
實	-20.3711
寧	-20.3711
寨	-20.3711
審	-20.3711
寫	-20.3711
寬	-20.3711
寮	-20.3711
寰	-20.3711
寳	-20.3711
寵	-20.3711
寶	-20.3711
寸	-20.3711
对	-20.3711
寺	-20.3711
寻	-20.3711
导	-20.3711
対	-20.3711
寿	-20.3711
封	-20.3711
専	-20.3711
射	-20.3711
尅	-20.3711
将	-20.3711
將	-20.3711
專	-20.3711
尉	-20.3711
尊	-20.3711
尋	-20.3711
對	-20.3711
導	-20.3711
小	-20.3711
少	-20.3711
尓	-20.3711
尔	-20.3711
尕	-20.3711
尖	-20.3711
尘	-20.3711
尙	-20.3711
尚	-20.3711
尝	-20.3711
尞	-20.3711
尠	-20.3711
尡	-20.3711
尢	-20.3711
尤	-20.3711
尥	-20.3711
尧	-20.3711
尨	-20.3711
尪	-20.3711
尬	-20.3711
尭	-20.3711
尰	-20.3711
就	-20.3711
尴	-20.3711
尷	-20.3711
尸	-20.3711
尹	-20.3711
尺	-20.3711
尻	-20.3711
尼	-20.3711
尽	-20.3711
尾	-20.3711
尿	-20.3711
局	-20.3711
屁	-20.3711
层	-20.3711
屄	-20.3711
居	-20.3711
屆	-20.3711
屈	-20.3711
屉	-20.3711
届	-20.3711
屋	-20.3711
屌	-20.3711
屍	-20.3711
屎	-20.3711
屏	-20.3711
屐	-20.3711
屑	-20.3711
屓	-20.3711
展	-20.3711
屘	-20.3711
屙	-20.3711
屜	-20.3711
属	-20.3711
屠	-20.3711
屡	-20.3711
屢	-20.3711
屣	-20.3711
層	-20.3711
履	-20.3711
屦	-20.3711
屬	-20.3711
屯	-20.3711
山	-20.3711
屹	-20.3711
屺	-20.3711
屿	-20.3711
岀	-20.3711
岁	-20.3711
岂	-20.3711
岈	-20.3711
岌	-20.3711
岍	-20.3711
岐	-20.3711
岑	-20.3711
岔	-20.3711
岕	-20.3711
岖	-20.3711
岗	-20.3711
岘	-20.3711
岙	-20.3711
岚	-20.3711
岛	-20.3711
岜	-20.3711
岞	-20.3711
岡	-20.3711
岢	-20.3711
岨	-20.3711
岩	-20.3711
岫	-20.3711
岬	-20.3711
岭	-20.3711
岱	-20.3711
岳	-20.3711
岵	-20.3711
岷	-20.3711
岸	-20.3711
岻	-20.3711
岼	-20.3711
岽	-20.3711
岿	-20.3711
峁	-20.3711
峄	-20.3711
峅	-20.3711
峇	-20.3711
峋	-20.3711
峒	-20.3711
峙	-20.3711
峠	-20.3711
峡	-20.3711
峣	-20.3711
峤	-20.3711
峥	-20.3711
峦	-20.3711
峨	-20.3711
峪	-20.3711
峭	-20.3711
峯	-20.3711
峰	-20.3711
島	-20.3711
峻	-20.3711
峽	-20.3711
崂	-20.3711
崃	-20.3711
崆	-20.3711
崇	-20.3711
崋	-20.3711
崎	-20.3711
崐	-20.3711
崑	-20.3711
崒	-20.3711
崔	-20.3711
崕	-20.3711
崖	-20.3711
崗	-20.3711
崙	-20.3711
崚	-20.3711
崛	-20.3711
崞	-20.3711
崟	-20.3711
崢	-20.3711
崤	-20.3711
崦	-20.3711
崧	-20.3711
崩	-20.3711
崭	-20.3711
崮	-20.3711
崴	-20.3711
崽	-20.3711
崾	-20.3711
嵂	-20.3711
嵇	-20.3711
嵊	-20.3711
嵋	-20.3711
嵌	-20.3711
嵎	-20.3711
嵐	-20.3711
嵒	-20.3711
嵖	-20.3711
嵘	-20.3711
嵛	-20.3711
嵜	-20.3711
嵨	-20.3711
嵩	-20.3711
嵪	-20.3711
嵫	-20.3711
嵬	-20.3711
嵯	-20.3711
嵴	-20.3711
嶂	-20.3711
嶃	-20.3711
嶄	-20.3711
嶇	-20.3711
嶋	-20.3711
嶌	-20.3711
嶓	-20.3711
嶖	-20.3711
嶙	-20.3711
嶝	-20.3711
嶬	-20.3711
嶮	-20.3711
嶷	-20.3711
嶺	-20.3711
嶼	-20.3711
嶽	-20.3711
巂	-20.3711
巅	-20.3711
巇	-20.3711
巉	-20.3711
巌	-20.3711
巍	-20.3711
巒	-20.3711
巓	-20.3711
巖	-20.3711
川	-20.3711
州	-20.3711
巡	-20.3711
巢	-20.3711
巣	-20.3711
工	-20.3711
左	-20.3711
巧	-20.3711
巨	-20.3711
巩	-20.3711
巫	-20.3711
差	-20.3711
巯	-20.3711
己	-20.3711
已	-20.3711
巳	-20.3711
巴	-20.3711
巵	-20.3711
巷	-20.3711
巺	-20.3711
巻	-20.3711
巽	-20.3711
巾	-20.3711
巿	-20.3711
帀	-20.3711
币	-20.3711
市	-20.3711
布	-20.3711
帅	-20.3711
帆	-20.3711
师	-20.3711
希	-20.3711
帏	-20.3711
帐	-20.3711
帑	-20.3711
帔	-20.3711
帕	-20.3711
帖	-20.3711
帘	-20.3711
帙	-20.3711
帚	-20.3711
帛	-20.3711
帜	-20.3711
帝	-20.3711
帥	-20.3711
带	-20.3711
帧	-20.3711
師	-20.3711
席	-20.3711
帮	-20.3711
帯	-20.3711
帰	-20.3711
帳	-20.3711
帶	-20.3711
帷	-20.3711
常	-20.3711
帻	-20.3711
帼	-20.3711
帽	-20.3711
幀	-20.3711
幂	-20.3711
幄	-20.3711
幅	-20.3711
幇	-20.3711
幌	-20.3711
幔	-20.3711
幕	-20.3711
幗	-20.3711
幛	-20.3711
幟	-20.3711
幡	-20.3711
幢	-20.3711
幣	-20.3711
幫	-20.3711
干	-20.3711
平	-20.3711
年	-20.3711
并	-20.3711
幷	-20.3711
幸	-20.3711
幹	-20.3711
幺	-20.3711
幻	-20.3711
幼	-20.3711
幽	-20.3711
幾	-20.3711
广	-20.3711
庁	-20.3711
広	-20.3711
庄	-20.3711
庅	-20.3711
庆	-20.3711
庇	-20.3711
床	-20.3711
序	-20.3711
庐	-20.3711
庑	-20.3711
库	-20.3711
应	-20.3711
底	-20.3711
庖	-20.3711
店	-20.3711
庙	-20.3711
庚	-20.3711
府	-20.3711
庞	-20.3711
废	-20.3711
庠	-20.3711
度	-20.3711
座	-20.3711
庫	-20.3711
庭	-20.3711
庵	-20.3711
庶	-20.3711
康	-20.3711
庸	-20.3711
庹	-20.3711
庾	-20.3711
廁	-20.3711
廂	-20.3711
廃	-20.3711
廆	-20.3711
廈	-20.3711
廉	-20.3711
廊	-20.3711
廋	-20.3711
廑	-20.3711
廓	-20.3711
廖	-20.3711
廚	-20.3711
廛	-20.3711
廝	-20.3711
廟	-20.3711
廠	-20.3711
廢	-20.3711
廣	-20.3711
廨	-20.3711
廪	-20.3711
廬	-20.3711
廳	-20.3711
廴	-20.3711
延	-20.3711
廷	-20.3711
建	-20.3711
廻	-20.3711
廼	-20.3711
廿	-20.3711
开	-20.3711
弁	-20.3711
异	-20.3711
弃	-20.3711
弄	-20.3711
弇	-20.3711
弈	-20.3711
弉	-20.3711
弊	-20.3711
弋	-20.3711
式	-20.3711
弐	-20.3711
弑	-20.3711
弓	-20.3711
弔	-20.3711
引	-20.3711
弖	-20.3711
弗	-20.3711
弘	-20.3711
弛	-20.3711
弟	-20.3711
张	-20.3711
弢	-20.3711
弥	-20.3711
弦	-20.3711
弧	-20.3711
弨	-20.3711
弩	-20.3711
弭	-20.3711
弯	-20.3711
弱	-20.3711
張	-20.3711
強	-20.3711
弹	-20.3711
强	-20.3711
弼	-20.3711
弾	-20.3711
彀	-20.3711
彅	-20.3711
彆	-20.3711
彈	-20.3711
彊	-20.3711
彌	-20.3711
彎	-20.3711
彑	-20.3711
归	-20.3711
当	-20.3711
录	-20.3711
彖	-20.3711
彗	-20.3711
彘	-20.3711
彙	-20.3711
彝	-20.3711
彟	-20.3711
彡	-20.3711
形	-20.3711
彤	-20.3711
彥	-20.3711
彦	-20.3711
彧	-20.3711
彩	-20.3711
彪	-20.3711
彫	-20.3711
彬	-20.3711
彭	-20.3711
彰	-20.3711
影	-20.3711
彳	-20.3711
彷	-20.3711
役	-20.3711
彺	-20.3711
彻	-20.3711
彼	-20.3711
彿	-20.3711
往	-20.3711
征	-20.3711
徂	-20.3711
徃	-20.3711
径	-20.3711
待	-20.3711
徇	-20.3711
很	-20.3711
徉	-20.3711
徊	-20.3711
律	-20.3711
後	-20.3711
徍	-20.3711
徐	-20.3711
徑	-20.3711
徒	-20.3711
従	-20.3711
徕	-20.3711
得	-20.3711
徘	-20.3711
徙	-20.3711
徜	-20.3711
從	-20.3711
徠	-20.3711
御	-20.3711
徨	-20.3711
復	-20.3711
循	-20.3711
徬	-20.3711
徭	-20.3711
微	-20.3711
徳	-20.3711
徴	-20.3711
徵	-20.3711
德	-20.3711
徹	-20.3711
徼	-20.3711
徽	-20.3711
心	-20.3711
忄	-20.3711
必	-20.3711
忆	-20.3711
忋	-20.3711
忌	-20.3711
忍	-20.3711
忏	-20.3711
忐	-20.3711
忑	-20.3711
忒	-20.3711
忖	-20.3711
志	-20.3711
忘	-20.3711
忙	-20.3711
応	-20.3711
忝	-20.3711
忠	-20.3711
忡	-20.3711
忤	-20.3711
忧	-20.3711
忪	-20.3711
快	-20.3711
忰	-20.3711
忱	-20.3711
念	-20.3711
忸	-20.3711
忻	-20.3711
忽	-20.3711
忾	-20.3711
忿	-20.3711
怀	-20.3711
态	-20.3711
怂	-20.3711
怃	-20.3711
怄	-20.3711
怅	-20.3711
怆	-20.3711
怍	-20.3711
怎	-20.3711
怏	-20.3711
怒	-20.3711
怔	-20.3711
怕	-20.3711
怖	-20.3711
怗	-20.3711
怙	-20.3711
怛	-20.3711
怜	-20.3711
思	-20.3711
怠	-20.3711
怡	-20.3711
急	-20.3711
怦	-20.3711
性	-20.3711
怨	-20.3711
怩	-20.3711
怪	-20.3711
怫	-20.3711
怯	-20.3711
怱	-20.3711
怵	-20.3711
怹	-20.3711
总	-20.3711
怼	-20.3711
怿	-20.3711
恁	-20.3711
恂	-20.3711
恃	-20.3711
恆	-20.3711
恋	-20.3711
恍	-20.3711
恐	-20.3711
恒	-20.3711
恓	-20.3711
恕	-20.3711
恙	-20.3711
恚	-20.3711
恟	-20.3711
恢	-20.3711
恣	-20.3711
恤	-20.3711
恥	-20.3711
恨	-20.3711
恩	-20.3711
恪	-20.3711
恫	-20.3711
恬	-20.3711
恭	-20.3711
息	-20.3711
恰	-20.3711
恳	-20.3711
恵	-20.3711
恶	-20.3711
恸	-20.3711
恹	-20.3711
恺	-20.3711
恻	-20.3711
恼	-20.3711
恽	-20.3711
恿	-20.3711
悃	-20.3711
悄	-20.3711
悅	-20.3711
悆	-20.3711
悉	-20.3711
悋	-20.3711
悌	-20.3711
悍	-20.3711
悒	-20.3711
悔	-20.3711
悕	-20.3711
悖	-20.3711
悚	-20.3711
悛	-20.3711
悝	-20.3711
悟	-20.3711
悠	-20.3711
患	-20.3711
悦	-20.3711
悧	-20.3711
您	-20.3711
悩	-20.3711
悪	-20.3711
悫	-20.3711
悬	-20.3711
悭	-20.3711
悯	-20.3711
悱	-20.3711
悲	-20.3711
悳	-20.3711
悴	-20.3711
悵	-20.3711
悶	-20.3711
悸	-20.3711
悻	-20.3711
悼	-20.3711
悽	-20.3711
情	-20.3711
惆	-20.3711
惇	-20.3711
惊	-20.3711
惋	-20.3711
惎	-20.3711
惑	-20.3711
惕	-20.3711
惘	-20.3711
惙	-20.3711
惚	-20.3711
惜	-20.3711
惟	-20.3711
惠	-20.3711
惡	-20.3711
惣	-20.3711
惦	-20.3711
惧	-20.3711
惨	-20.3711
惩	-20.3711
惫	-20.3711
惬	-20.3711
惭	-20.3711
惮	-20.3711
惯	-20.3711
惰	-20.3711
惱	-20.3711
想	-20.3711
惴	-20.3711
惶	-20.3711
惹	-20.3711
惺	-20.3711
惻	-20.3711
愀	-20.3711
愁	-20.3711
愆	-20.3711
愇	-20.3711
愈	-20.3711
愉	-20.3711
愊	-20.3711
愍	-20.3711
愎	-20.3711
意	-20.3711
愔	-20.3711
愕	-20.3711
愚	-20.3711
愛	-20.3711
感	-20.3711
愠	-20.3711
愣	-20.3711
愤	-20.3711
愦	-20.3711
愧	-20.3711
愫	-20.3711
愬	-20.3711
愴	-20.3711
愷	-20.3711
愼	-20.3711
愾	-20.3711
愿	-20.3711
慂	-20.3711
慄	-20.3711
慆	-20.3711
慇	-20.3711
慈	-20.3711
慊	-20.3711
態	-20.3711
慌	-20.3711
慎	-20.3711
慑	-20.3711
慓	-20.3711
慕	-20.3711
慘	-20.3711
慙	-20.3711
慚	-20.3711
慜	-20.3711
慝	-20.3711
慟	-20.3711
慢	-20.3711
慣	-20.3711
慥	-20.3711
慧	-20.3711
慨	-20.3711
慫	-20.3711
慮	-20.3711
慰	-20.3711
慳	-20.3711
慴	-20.3711
慵	-20.3711
慶	-20.3711
慷	-20.3711
慾	-20.3711
憂	-20.3711
憊	-20.3711
憋	-20.3711
憍	-20.3711
憎	-20.3711
憐	-20.3711
憑	-20.3711
憔	-20.3711
憖	-20.3711
憙	-20.3711
憚	-20.3711
憤	-20.3711
憧	-20.3711
憨	-20.3711
憩	-20.3711
憫	-20.3711
憬	-20.3711
憮	-20.3711
憲	-20.3711
憶	-20.3711
憷	-20.3711
憺	-20.3711
憾	-20.3711
懂	-20.3711
懃	-20.3711
懆	-20.3711
懇	-20.3711
懈	-20.3711
應	-20.3711
懊	-20.3711
懋	-20.3711
懐	-20.3711
懑	-20.3711
懒	-20.3711
懣	-20.3711
懦	-20.3711
懲	-20.3711
懵	-20.3711
懶	-20.3711
懷	-20.3711
懸	-20.3711
懺	-20.3711
懼	-20.3711
懾	-20.3711
懿	-20.3711
戀	-20.3711
戆	-20.3711
戇	-20.3711
戈	-20.3711
戊	-20.3711
戌	-20.3711
戍	-20.3711
戎	-20.3711
戏	-20.3711
成	-20.3711
我	-20.3711
戒	-20.3711
戔	-20.3711
戕	-20.3711
或	-20.3711
戗	-20.3711
战	-20.3711
戚	-20.3711
戛	-20.3711
戞	-20.3711
戟	-20.3711
戡	-20.3711
戢	-20.3711
戥	-20.3711
戦	-20.3711
截	-20.3711
戬	-20.3711
戮	-20.3711
戯	-20.3711
戰	-20.3711
戲	-20.3711
戳	-20.3711
戴	-20.3711
戶	-20.3711
户	-20.3711
戸	-20.3711
戻	-20.3711
戽	-20.3711
戾	-20.3711
房	-20.3711
所	-20.3711
扁	-20.3711
扃	-20.3711
扆	-20.3711
扇	-20.3711
扈	-20.3711
扉	-20.3711
手	-20.3711
才	-20.3711
扎	-20.3711
扐	-20.3711
扑	-20.3711
扒	-20.3711
打	-20.3711
扔	-20.3711
払	-20.3711
托	-20.3711
扛	-20.3711
扞	-20.3711
扠	-20.3711
扣	-20.3711
扤	-20.3711
扥	-20.3711
扦	-20.3711
执	-20.3711
扨	-20.3711
扩	-20.3711
扪	-20.3711
扫	-20.3711
扬	-20.3711
扭	-20.3711
扮	-20.3711
扯	-20.3711
扰	-20.3711
扱	-20.3711
扳	-20.3711
扶	-20.3711
批	-20.3711
扼	-20.3711
找	-20.3711
承	-20.3711
技	-20.3711
抃	-20.3711
抄	-20.3711
抅	-20.3711
抉	-20.3711
把	-20.3711
抌	-20.3711
抑	-20.3711
抒	-20.3711
抓	-20.3711
抔	-20.3711
投	-20.3711
抖	-20.3711
抗	-20.3711
折	-20.3711
抚	-20.3711
抛	-20.3711
抜	-20.3711
択	-20.3711
抟	-20.3711
抠	-20.3711
抡	-20.3711
抢	-20.3711
护	-20.3711
报	-20.3711
抨	-20.3711
披	-20.3711
抬	-20.3711
抱	-20.3711
抵	-20.3711
抹	-20.3711
抻	-20.3711
押	-20.3711
抽	-20.3711
抾	-20.3711
抿	-20.3711
拂	-20.3711
拃	-20.3711
拄	-20.3711
担	-20.3711
拆	-20.3711
拇	-20.3711
拈	-20.3711
拉	-20.3711
拊	-20.3711
拋	-20.3711
拌	-20.3711
拍	-20.3711
拎	-20.3711
拐	-20.3711
拒	-20.3711
拓	-20.3711
拔	-20.3711
拖	-20.3711
拗	-20.3711
拘	-20.3711
拙	-20.3711
拚	-20.3711
招	-20.3711
拜	-20.3711
拝	-20.3711
拟	-20.3711
拠	-20.3711
拡	-20.3711
拢	-20.3711
拣	-20.3711
拤	-20.3711
拥	-20.3711
拦	-20.3711
拧	-20.3711
拨	-20.3711
择	-20.3711
括	-20.3711
拭	-20.3711
拮	-20.3711
拯	-20.3711
拱	-20.3711
拳	-20.3711
拴	-20.3711
拵	-20.3711
拶	-20.3711
拷	-20.3711
拼	-20.3711
拽	-20.3711
拾	-20.3711
拿	-20.3711
持	-20.3711
挂	-20.3711
指	-20.3711
挈	-20.3711
按	-20.3711
挌	-20.3711
挎	-20.3711
挑	-20.3711
挒	-20.3711
挖	-20.3711
挙	-20.3711
挚	-20.3711
挛	-20.3711
挝	-20.3711
挞	-20.3711
挟	-20.3711
挠	-20.3711
挡	-20.3711
挢	-20.3711
挣	-20.3711
挤	-20.3711
挥	-20.3711
挨	-20.3711
挪	-20.3711
挫	-20.3711
振	-20.3711
挲	-20.3711
挹	-20.3711
挺	-20.3711
挼	-20.3711
挽	-20.3711
挾	-20.3711
挿	-20.3711
捂	-20.3711
捅	-20.3711
捆	-20.3711
捉	-20.3711
捊	-20.3711
捋	-20.3711
捌	-20.3711
捍	-20.3711
捎	-20.3711
捏	-20.3711
捐	-20.3711
捕	-20.3711
捗	-20.3711
捜	-20.3711
捞	-20.3711
损	-20.3711
捡	-20.3711
换	-20.3711
捣	-20.3711
捧	-20.3711
捨	-20.3711
捩	-20.3711
捫	-20.3711
捭	-20.3711
据	-20.3711
捯	-20.3711
捱	-20.3711
捲	-20.3711
捶	-20.3711
捷	-20.3711
捺	-20.3711
捻	-20.3711
掀	-20.3711
掂	-20.3711
掃	-20.3711
掇	-20.3711
授	-20.3711
掉	-20.3711
掊	-20.3711
掌	-20.3711
掎	-20.3711
掏	-20.3711
掐	-20.3711
排	-20.3711
掕	-20.3711
掖	-20.3711
掘	-20.3711
掙	-20.3711
掛	-20.3711
掞	-20.3711
掟	-20.3711
掠	-20.3711
採	-20.3711
探	-20.3711
掣	-20.3711
接	-20.3711
控	-20.3711
推	-20.3711
掩	-20.3711
措	-20.3711
掬	-20.3711
掮	-20.3711
掰	-20.3711
掲	-20.3711
掳	-20.3711
掴	-20.3711
掷	-20.3711
掸	-20.3711
掹	-20.3711
掺	-20.3711
掻	-20.3711
掼	-20.3711
掾	-20.3711
揀	-20.3711
揃	-20.3711
揄	-20.3711
揆	-20.3711
揈	-20.3711
揉	-20.3711
揍	-20.3711
揎	-20.3711
描	-20.3711
提	-20.3711
插	-20.3711
揖	-20.3711
揚	-20.3711
換	-20.3711
揞	-20.3711
揠	-20.3711
握	-20.3711
揣	-20.3711
揩	-20.3711
揪	-20.3711
揭	-20.3711
揮	-20.3711
揲	-20.3711
援	-20.3711
揵	-20.3711
揶	-20.3711
揸	-20.3711
揺	-20.3711
揼	-20.3711
揽	-20.3711
揿	-20.3711
搀	-20.3711
搁	-20.3711
搂	-20.3711
搅	-20.3711
搆	-20.3711
搋	-20.3711
搌	-20.3711
損	-20.3711
搏	-20.3711
搐	-20.3711
搓	-20.3711
搔	-20.3711
搖	-20.3711
搗	-20.3711
搛	-20.3711
搜	-20.3711
搞	-20.3711
搠	-20.3711
搡	-20.3711
搢	-20.3711
搣	-20.3711
搦	-20.3711
搧	-20.3711
搨	-20.3711
搪	-20.3711
搬	-20.3711
搭	-20.3711
搴	-20.3711
搵	-20.3711
搶	-20.3711
搹	-20.3711
携	-20.3711
搽	-20.3711
搾	-20.3711
摁	-20.3711
摂	-20.3711
摄	-20.3711
摅	-20.3711
摆	-20.3711
摇	-20.3711
摈	-20.3711
摊	-20.3711
摐	-20.3711
摒	-20.3711
摔	-20.3711
摘	-20.3711
摛	-20.3711
摞	-20.3711
摟	-20.3711
摧	-20.3711
摩	-20.3711
摭	-20.3711
摯	-20.3711
摵	-20.3711
摸	-20.3711
摹	-20.3711
摺	-20.3711
摽	-20.3711
撂	-20.3711
撃	-20.3711
撄	-20.3711
撅	-20.3711
撇	-20.3711
撈	-20.3711
撐	-20.3711
撑	-20.3711
撒	-20.3711
撓	-20.3711
撕	-20.3711
撖	-20.3711
撙	-20.3711
撚	-20.3711
撞	-20.3711
撤	-20.3711
撥	-20.3711
撩	-20.3711
撫	-20.3711
撬	-20.3711
播	-20.3711
撮	-20.3711
撰	-20.3711
撲	-20.3711
撳	-20.3711
撴	-20.3711
撵	-20.3711
撷	-20.3711
撸	-20.3711
撹	-20.3711
撺	-20.3711
撻	-20.3711
撼	-20.3711
撿	-20.3711
擀	-20.3711
擁	-20.3711
擂	-20.3711
擅	-20.3711
擇	-20.3711
擊	-20.3711
擋	-20.3711
操	-20.3711
擎	-20.3711
擐	-20.3711
擒	-20.3711
擔	-20.3711
擗	-20.3711
擘	-20.3711
據	-20.3711
擞	-20.3711
擠	-20.3711
擡	-20.3711
擢	-20.3711
擣	-20.3711
擤	-20.3711
擦	-20.3711
擧	-20.3711
擬	-20.3711
擯	-20.3711
擰	-20.3711
擱	-20.3711
擲	-20.3711
擳	-20.3711
擴	-20.3711
擶	-20.3711
擺	-20.3711
擻	-20.3711
擽	-20.3711
擾	-20.3711
攀	-20.3711
攆	-20.3711
攉	-20.3711
攏	-20.3711
攒	-20.3711
攔	-20.3711
攘	-20.3711
攙	-20.3711
攜	-20.3711
攝	-20.3711
攞	-20.3711
攣	-20.3711
攤	-20.3711
攥	-20.3711
攪	-20.3711
攫	-20.3711
攬	-20.3711
攮	-20.3711
支	-20.3711
攰	-20.3711
攴	-20.3711
攵	-20.3711
收	-20.3711
攷	-20.3711
攸	-20.3711
改	-20.3711
攻	-20.3711
放	-20.3711
政	-20.3711
故	-20.3711
效	-20.3711
敉	-20.3711
敌	-20.3711
敍	-20.3711
敏	-20.3711
救	-20.3711
敕	-20.3711
敖	-20.3711
敗	-20.3711
敘	-20.3711
教	-20.3711
敛	-20.3711
敝	-20.3711
敞	-20.3711
敢	-20.3711
散	-20.3711
敦	-20.3711
敫	-20.3711
敬	-20.3711
数	-20.3711
敲	-20.3711
整	-20.3711
敵	-20.3711
敷	-20.3711
數	-20.3711
斁	-20.3711
斂	-20.3711
斃	-20.3711
文	-20.3711
斉	-20.3711
斋	-20.3711
斌	-20.3711
斎	-20.3711
斐	-20.3711
斑	-20.3711
斓	-20.3711
斕	-20.3711
斗	-20.3711
料	-20.3711
斛	-20.3711
斜	-20.3711
斝	-20.3711
斟	-20.3711
斡	-20.3711
斤	-20.3711
斥	-20.3711
斧	-20.3711
斩	-20.3711
斫	-20.3711
斬	-20.3711
断	-20.3711
斯	-20.3711
新	-20.3711
斷	-20.3711
方	-20.3711
於	-20.3711
施	-20.3711
斿	-20.3711
旁	-20.3711
旃	-20.3711
旄	-20.3711
[...]
